{"<s>":0,"<pad>":1,"</s>":2,"<unk>":3,".":4,"Ġthe":5,",":6,"Ġto":7,"Ġand":8,"Ġof":9,"Ġa":10,"Ġin":11,"-":12,"Ġfor":13,"Ġthat":14,"Ġon":15,"Ġis":16,"âĢ":17,"'s":18,"Ġwith":19,"ĠThe":20,"Ġwas":21,"Ġ\"":22,"Ġat":23,"Ġit":24,"Ġas":25,"Ġsaid":26,"Ļ":27,"Ġbe":28,"s":29,"Ġby":30,"Ġfrom":31,"Ġare":32,"Ġhave":33,"Ġhas":34,":":35,"Ġ(":36,"Ġhe":37,"ĠI":38,"Ġhis":39,"Ġwill":40,"Ġan":41,"Ġthis":42,")":43,"ĠâĢ":44,"Ġnot":45,"Ŀ":46,"Ġyou":47,"ľ":48,"Ġtheir":49,"Ġor":50,"Ġthey":51,"Ġwe":52,"Ġbut":53,"Ġwho":54,"Ġmore":55,"Ġhad":56,"Ġbeen":57,"Ġwere":58,"Ġabout":59,",\"":60,"Ġwhich":61,"Ġup":62,"Ġits":63,"Ġcan":64,"Ġone":65,"Ġout":66,"Ġalso":67,"Ġ$":68,"Ġher":69,"Ġall":70,"Ġafter":71,".\"":72,"/":73,"Ġwould":74,"'t":75,"Ġyear":76,"Ġwhen":77,"Ġfirst":78,"Ġshe":79,"Ġtwo":80,"Ġover":81,"Ġpeople":82,"ĠA":83,"Ġour":84,"ĠIt":85,"Ġtime":86,"Ġthan":87,"Ġinto":88,"Ġthere":89,"t":90,"ĠHe":91,"Ġnew":92,"ĠâĢĶ":93,"Ġlast":94,"Ġjust":95,"ĠIn":96,"Ġother":97,"Ġso":98,"Ġwhat":99,"I":100,"Ġlike":101,"a":102,"Ġsome":103,"S":104,"Ã«":105,"Ġthem":106,"Ġyears":107,"'":108,"Ġdo":109,"Ġyour":110,"Ġ-":111,"Ġ1":112,"\"":113,"Ġif":114,"Ġcould":115,"?":116,"Ġno":117,"i":118,"m":119,"Ġget":120,"ĠU":121,"Ġnow":122,"Ġhim":123,"Ġback":124,"ĠBut":125,"ĠâĢĵ":126,"Ġmy":127,"Ġ'":128,"Ġonly":129,"Ġthree":130,";":131,"Ġ2":132,"The":133,"1":134,"Ġpercent":135,"Ġagainst":136,"Ġbefore":137,"Ġcompany":138,"o":139,"ĠTrump":140,"Ġhow":141,"Ġbecause":142,"Ġany":143,"Ġmost":144,"Ġbeing":145,"Ġmake":146,"Ġwhere":147,"Ġduring":148,"Ġthrough":149,"Ġwhile":150,"000":151,"ĠThis":152,"Ġmillion":153,"ing":154,"Ġ3":155,"Ġmade":156,"Ġwell":157,"Ġ10":158,"Ġdown":159,"Ġoff":160,"Ġsays":161,"Ġme":162,"ĠB":163,"Ġgoing":164,"Ġteam":165,"ĠWe":166,"Ġthose":167,"Ġgovernment":168,"Ġway":169,"We":170,"Ġmany":171,"Ġthen":172,"Ġwork":173,"Ġtold":174,"com":175,"2":176,"Ġgame":177,"ĠAnd":178,"in":179,"year":180,"Ġp":181,"Ġvery":182,"Ġday":183,"Ġhome":184,"Ġtake":185,"Ġweek":186,"Ġsince":187,"ĠNew":188,"Ġmay":189,"Ġeven":190,"Ġseason":191,"Ġsee":192,"Ġ2017":193,"Ġstate":194,"Ġ5":195,"ed":196,"Ġshould":197,"Ġaround":198,"Ġ2018":199,"Ġsecond":200,"Ġus":201,"Ġstill":202,"Ġmuch":203,"Ġ4":204,"Ġgood":205,"Ġthink":206,"%":207,"ĠS":208,"Ġthese":209,"Ġmarket":210,"ĠD":211,"th":212,"Ġgo":213,"'re":214,"Ġsuch":215,"Ġknow":216,"Ġincluding":217,"Ġdon":218,"y":219,"Ġnext":220,"ĠP":221,"Ġdid":222,"Ġunder":223,"Ġsay":224,"en":225,"ĠL":226,"Ġbetween":227,"Ġper":228,"ĠK":229,"ĠC":230,"Ġ6":231,"Ġworld":232,"Ġpart":233,"ĠN":234,"Ġright":235,"Ġwant":236,"Ġfour":237,"),":238,"Ġhigh":239,"Ġneed":240,"re":241,"e":242,"It":243,"Ġhelp":244,"5":245,"3":246,"Ġcountry":247,"ĠR":248,"Ġpolice":249,"A":250,"Ġlong":251,"ĠThey":252,"Ġend":253,"er":254,"ĠT":255,"ĠM":256,"u":257,"Ġboth":258,"Ġhere":259,"an":260,"on":261,"Ġ7":262,"Ġde":263,"ĠShe":264,"Ġbusiness":265,"Ġreport":266,"j":267,"ers":268,"Ġreally":269,"ĠPresident":270,"ar":271,"ĠG":272,"ĠFriday":273,"ĠF":274,"Ġbest":275,"Ġsame":276,"Ġanother":277,"Ġset":278,"old":279,"ĠThat":280,"as":281,"n":282,"Ġcome":283,"Ġfamily":284,"Ġpublic":285,"ĠFor":286,"ĠAs":287,"0":288,"ĠH":289,"Ġ8":290,"Ġ20":291,"Ġfive":292,"es":293,"ĠTuesday":294,"Ġn":295,"ĠThursday":296,"Ġquarter":297,"h":298,"Ġtop":299,"Ġgot":300,"Ġlife":301,"ĠMonday":302,"Ġfound":303,"Ġuse":304,"ĠW":305,"4":306,"ĠWednesday":307,"Ġown":308,"Ġaccording":309,"Ġplay":310,"Ġshow":311,"ĠSt":312,"Ġman":313,"Ġleft":314,"ĠUnited":315,"Ġ12":316,"Ġplace":317,"ĠIf":318,"Ġlot":319,"Ġformer":320,"Ġ0":321,").":322,"Ġsupport":323,"ie":324,"Ġbillion":325,"Ġt":326,"Ġshares":327,"!":328,"z":329,"k":330,"ĠState":331,"Ġpoints":332,"Ġgroup":333,"Ġschool":334,"Ġinformation":335,"Ġ2016":336,"al":337,"r":338,"Ġwin":339,"Ġnews":340,"Ġused":341,"Ġput":342,"Ġcity":343,"ĠJ":344,"ĠThere":345,"Ġnumber":346,"C":347,"'ve":348,"Ġeach":349,"Ġtoo":350,"Ġwon":351,"ly":352,"Ġmonth":353,"is":354,"Ġadded":355,"Ġlook":356,"Ġbetter":357,"Ġevery":358,"Ġ&":359,"Ġdays":360,"Ġ9":361,"Ġtook":362,"Ġnight":363,"Ġe":364,"Ġ11":365,"os":366,"Ġfew":367,"or":368,"ĠNorth":369,"ĠYou":370,"Ġthird":371,"Ġgreat":372,"Ġcalled":373,"ĠOn":374,"Ġpast":375,"Ġcame":376,"Ġmonths":377,"ĠSaturday":378,"Ġ15":379,"Ġbig":380,"ĠE":381,"ĠUS":382,"Ġthings":383,"ĠO":384,"Ġd":385,"Ġstart":386,"B":387,"Ġstock":388,"Ġ30":389,"Ġwomen":390,"ĠSouth":391,"ĠMay":392,"Ġnever":393,"Ġpresident":394,"ĠSunday":395,"Ġwithout":396,"man":397,"8":398,"Ġdidn":399,"Ġlocal":400,"6":401,"Ġsomething":402,"Ġcase":403,"ĠAll":404,"it":405,"7":406,"ĠSo":407,"Ġchildren":408,"Ġaway":409,"Ġlittle":410,"Ġsix":411,"ĠCity":412,"ĠCounty":413,"Ġdata":414,"at":415,"Ġalready":416,"d":417,"Ġmoney":418,"Ġearly":419,"Ġacross":420,"Ġexpected":421,"Ġrun":422,"Ġlater":423,"am":424,"Ġprice":425,"Ġgames":426,"ĠMr":427,"b":428,"Ġmight":429,"Ġdifferent":430,"Ġreported":431,"Ġdeal":432,"Ġmedia":433,"Ġgrowth":434,"Ġcommunity":435,"ĠChina":436,"'m":437,"c":438,"Ġwent":439,"ĠNo":440,"Ġable":441,"Ġmaking":442,"Ġarea":443,"Ġfar":444,"Ġstatement":445,"ĠHouse":446,"Ġworking":447,"M":448,"Ġk":449,"Ġseen":450,"Ġcompanies":451,"Ġtoday":452,"Ġmembers":453,"Ġuntil":454,"Ġfull":455,"Ġagain":456,"Ġhalf":457,"Ġshare":458,"le":459,"Ġalways":460,"Ġcourt":461,"l":462,"and":463,"Ġchange":464,"Ġfind":465,"9":466,"Ġsystem":467,"ĠV":468,"ĠYork":469,"ĠAmerican":470,"Ġhead":471,"Ġplayers":472,"Ġdoes":473,"Ġhealth":474,"Ġm":475,"Ġpower":476,"Ġpoint":477,"Ġhit":478,"Ġ.":479,"Ġ--":480,"Ġfree":481,".,":482,"Ġlead":483,"Ġseveral":484,"Ġrecent":485,"Ġcall":486,"N":487,"Ġlaw":488,"Ġkeep":489,"Ġopen":490,"ĠNews":491,"Ġgive":492,"ia":493,"ĠMarch":494,"D":495,"ĠNational":496,"ĠAt":497,"Ġtimes":498,"Ġfuture":499,"R":500,"Ġ14":501,"ĠJune":502,"Ġofficials":503,"Ġ18":504,"Ġimportant":505,"f":506,"Ġfinal":507,"Ġ13":508,"ĠOne":509,"P":510,"Ġfollowing":511,"Ġcar":512,"Ġleast":513,"Ġwater":514,"Ġevent":515,"Ġline":516,"Ġmove":517,"Ġservices":518,"Ġhaving":519,"ĠWhen":520,"Ġstudents":521,"ĠPolice":522,"el":523,"Ġam":524,"ĠZ":525,"Ġside":526,"Ġstory":527,"Ġdue":528,"Ġmeeting":529,"K":530,"Ġmust":531,"ĠStates":532,"Ġlikely":533,"G":534,"Ġcontinue":535,"Ġago":536,"Ġparty":537,"Ġmajor":538,"Ġindustry":539,"Ġless":540,"30":541,"Ġun":542,"Ġhard":543,"Ġservice":544,"Ġ16":545,"Ġlooking":546,"Ġheld":547,"ve":548,"Ġwhether":549,"ĠJuly":550,"Ġtaken":551,"Ġalong":552,"Ġasked":553,"Ġstarted":554,"Ġbecome":555,"Ġforward":556,"Ġresearch":557,"Ġoffice":558,"Ġpolitical":559,"to":560,"Ġtogether":561,"Ġgetting":562,"Ġplan":563,"Ġ25":564,"T":565,"Ġamong":566,"Ġcoming":567,"Ġdecision":568,"Ġvideo":569,"Ġ2015":570,"g":571,"ĠAfter":572,"Ġsecurity":573,"L":574,"Ġcare":575,"Ġgiven":576,"Ġavailable":577,"âĢĶ":578,"Ġs":579,"ĠWest":580,"'ll":581,"Ġpay":582,"Ġnear":583,"Ġsaying":584,"Ġannounced":585,"Ġprogram":586,"ĠApril":587,"Ġreal":588,"ĠUniversity":589,"ĠWith":590,"AP":591,"Ġsocial":592,"Ġclose":593,"et":594,"Ġcurrent":595,"Ġwhy":596,"F":597,"ĠTo":598,"ĠTwitter":599,"Ġthough":600,"Ġ17":601,"Ġtaking":602,"ĠInc":603,"Ġmen":604,"w":605,"Ġcomes":606,"ley":607,"Ġdoing":608,"Ġprocess":609,"ĠJohn":610,"ch":611,"00":612,"Ġfinancial":613,"Ġlow":614,"Ġenough":615,"ĠWhile":616,"Ġfurther":617,"Ġpost":618,"Ġfeel":619,"st":620,"Ġperson":621,"ĠFacebook":622,"ĠWorld":623,"Ġwithin":624,"ad":625,"Ġdone":626,"the":627,"Ġlate":628,"Ġtax":629,"Ġdoesn":630,"Ġthing":631,"Ġnational":632,"Ġjob":633,"Ġusing":634,"ĠHowever":635,"ic":636,"Ġcampaign":637,"Ġrecord":638,"Ġbehind":639,"://":640,"ĠDepartment":641,"p":642,"Ġothers":643,"ĠJanuary":644,"Ġorder":645,"Ġ[":646,"Ġsales":647,"Ġyet":648,"Ä":649,"Ġsmall":650,"Ġseries":651,"Ġface":652,"ĠWhat":653,"Ġ50":654,"Ġever":655,"Ġearlier":656,"Ġlove":657,"up":658,"Ġrights":659,"ĠAn":660,"ist":661,"Ġmorning":662,"ĠWashington":663,"Ġyoung":664,"Ġlatest":665,"ĠIndia":666,"Ġtrying":667,"Ġfire":668,"Ġled":669,"Ġstrong":670,"Ġreturn":671,"Ġlevel":672,"O":673,"Ġaverage":674,"Ġperiod":675,"Ġexperience":676,"ak":677,"Ġpossible":678,"Ġbelieve":679,"Ġinclude":680,"Ġoil":681,"Ġrecently":682,"Ġonce":683,"Ġknown":684,"Ġlost":685,"Ġsure":686,"us":687,"Ġweeks":688,"Ġfood":689,"Ġreports":690,"Ġrating":691,"ĠMinister":692,"Ġwoman":693,"Ġprovide":694,"Ġproject":695,"Ġissue":696,"Ġlive":697,"10":698,"Ġclear":699,"he":700,"Ġcost":701,"Ġplayed":702,"Ġreleased":703,"Ġcoach":704,"v":705,"Ġ24":706,"Ġseven":707,"Ġplans":708,"Ġdevelopment":709,"ur":710,"ĺ":711,"Ġincrease":712,"This":713,"Ġpolicy":714,"Ġcent":715,"Ġbased":716,"E":717,"il":718,"ĠDecember":719,"Ġglobal":720,"Ġtrade":721,"Ġhours":722,"Ġhigher":723,"Ġgoal":724,"H":725,"ĠAl":726,"Ġ100":727,"Ġminutes":728,"Ġelection":729,"ĠAmerica":730,"Ġrate":731,"ĠCh":732,"Ġ21":733,"...":734,"ĠWhite":735,"Ġdirector":736,"Ġposition":737,"Ġshot":738,"Ġlarge":739,"Ġc":740,"Ġb":741,"]":742,"Ġissues":743,"Ġdeath":744,"Ġbuilding":745,"Ġtotal":746,"Ġoften":747,"Ġv":748,"Ġcountries":749,"Ġhistory":750,"Ġoutside":751,"Ġfederal":752,"Ġ19":753,"Ġfact":754,"ĠHigh":755,"Ġcareer":756,"im":757,"Ġinternational":758,"ĠNovember":759,"Ġfront":760,"Ġkind":761,"Ġkey":762,"ra":763,"ĠSan":764,"Ġshort":765,"Ġname":766,"ĠAccording":767,"Ġcourse":768,"Ġre":769,"Ġwanted":770,"W":771,"ĠSeptember":772,"Ġinterest":773,"Ġrole":774,"Ġresults":775,"Ġeconomic":776,"Ġ2014":777,"Ġchance":778,"ĠOctober":779,"Ġspecial":780,"Ġofficial":781,"Ġneeds":782,"um":783,"Ġl":784,"Ġproducts":785,"Ġnon":786,"Ġ@":787,"ĠBank":788,"Ġahead":789,"Ġhouse":790,"U":791,"Ġboard":792,"Ġold":793,"Ġsaw":794,"Ġlower":795,"ĠEuropean":796,"Ġcontrol":797,"ĠRussia":798,"Ġeight":799,"Ġrelease":800,"Ġpotential":801,"Ġthought":802,"Ġinvestigation":803,"Ġonline":804,"based":805,"Ġtechnology":806,"ĠDonald":807,"id":808,"Ġbody":809,"Ġrisk":810,"ian":811,"Ġcapital":812,"Ġstaff":813,"Ġaction":814,"ĠLeague":815,"Ġplaying":816,"Ġmakes":817,"Ġalmost":818,"Ġperformance":819,"Ġ22":820,"Ġg":821,"Ġfilm":822,"Ġnearly":823,"ĠCenter":824,"Ġvisit":825,"ĠGroup":826,"Ġbank":827,"Ġbit":828,"Ġreceived":829,"ĠAugust":830,"Ġmilitary":831,"ĠHis":832,"ine":833,"Ġchief":834,"ĠSchool":835,"Ġbring":836,"ĠCourt":837,"Ġ(@":838,"Ġmeans":839,"ĠSh":840,"Ġfans":841,"Ġse":842,"Ġ40":843,"20":844,"\".":845,"V":846,"Ġcut":847,"Ġkilled":848,"Ġ#":849,"Ġprices":850,"Ġgave":851,"ĠStreet":852,"ir":853,"ĠY":854,"Ġcurrently":855,"Ġf":856,"ay":857,"ne":858,"te":859,"Ġtry":860,"ĠPark":861,"ĥ":862,"J":863,"Ġquestion":864,"Ġhand":865,"Ġeconomy":866,"Ġinvestors":867,"able":868,"Ġplayer":869,"ĠBy":870,"ĠDavid":871,"Ġloss":872,"ab":873,"Ġbelow":874,"Ġwrote":875,"co":876,"ate":877,"Ġrunning":878,"un":879,"Ġbegan":880,"Ġsingle":881,"Ġfield":882,"Ġ23":883,"Ġleader":884,"Ġw":885,"ĠCalifornia":886,"Ġfourth":887,"Ġactually":888,"Ġlist":889,"ll":890,"Ġcouple":891,"Ġstudy":892,"Ġteams":893,"He":894,"ah":895,"ĠCanada":896,"Ġla":897,"Ġresult":898,"Ġaccess":899,"Ġvote":900,"ĠMore":901,"ĠFebruary":902,"Ġrevenue":903,"Ġoffer":904,"Ġlet":905,"ier":906,"Ġbuy":907,"Ġattack":908,"Ġblack":909,"Ġr":910,"Ġareas":911,"Ġstop":912,"Ġimpact":913,"Ġmatch":914,"Ġinvestment":915,"Ġcustomers":916,"Ġleaders":917,"ies":918,"Ġmember":919,"Ġchild":920,"Ġroad":921,"ul":922,"Ġvalue":923,"Ġshows":924,"ĠDr":925,"ĠDe":926,"ant":927,"ĠLondon":928,"Ġroom":929,"Ġmusic":930,"Ġproduction":931,"Ġanything":932,"Ġfirm":933,"Ġbiggest":934,"Ġair":935,"Ġproblem":936,"Ġgeneral":937,"Ġwasn":938,"Ġi":939,"Ġprivate":940,"Ġespecially":941,"Ġadministration":942,"Ġadditional":943,"ĠCo":944,"Ġopportunity":945,"Ġhold":946,"&":947,"Ġmatter":948,"Ġsenior":949,"Ġclub":950,"Ġsomeone":951,"ĠÃ":952,"ĠEast":953,"Ġ2019":954,".'":955,"Ġneeded":956,"ĠJames":957,"time":958,"Ġhowever":959,"Ġeverything":960,"Ġeveryone":961,"Ġdied":962,"Ġinvolved":963,"Ġfriends":964,"Ġisn":965,"Ġworth":966,"ik":967,"ĠCup":968,"Ġshowed":969,"There":970,"Ġ28":971,"Ġmeet":972,"Ġ26":973,"Ġ27":974,"Y":975,"Ġregion":976,"ĠPress":977,"ĠNow":978,"Ġson":979,"Ġspace":980,"Ġleading":981,"Ġstates":982,"Ġweekend":983,"ĠÂ£":984,"Ġmother":985,"Ġprevious":986,"ĠUK":987,"ĠMichael":988,"Ġleave":989,"est":990,"em":991,"Ġz":992,"ĠSome":993,"ors":994,"out":995,"15":996,"Ġwar":997,"Ġwebsite":998,"Ġstar":999,"X":1000,"ro":1001,"Ġtarget":1002,"Ġhimself":1003,"Ġturn":1004,"ĠEurope":1005,"Ġworked":1006,"Ġenergy":1007,"Ġscored":1008,"Ġ*":1009,"Ġsoon":1010,"Ġball":1011,"ĠTV":1012,"Ġannual":1013,"Ġ2013":1014,"Ġrace":1015,"ĠInternational":1016,"'d":1017,"ĠMarket":1018,"Ġconference":1019,"io":1020,"Ġo":1021,"Ġchanges":1022,"ig":1023,"Ġofficers":1024,"Ġinside":1025,"Ġform":1026,"Ġpublished":1027,"Ġphone":1028,"Ġco":1029,"Ġlegal":1030,"Ġexecutive":1031,"Ġfight":1032,"ings":1033,"Ġhope":1034,"Ġsummer":1035,"Ġofficer":1036,"Ġfootball":1037,"Ġproperty":1038,"@":1039,"Ġbook":1040,"Ġparents":1041,"Ġcosts":1042,"ac":1043,"Ġmanager":1044,"Ġcreate":1045,"Ġage":1046,"Ġemail":1047,"Ġmarkets":1048,"Ġmain":1049,"Ġhuman":1050,"Ġsent":1051,"Ġmanagement":1052,"ĠDay":1053,"ton":1054,"Ġcash":1055,"Ġfocus":1056,"Ġexpect":1057,"Ġtraining":1058,"Ġbecame":1059,"Ġwhose":1060,"Ġevents":1061,"Ġround":1062,"ĠLe":1063,"Ġfell":1064,"Ġabove":1065,"Ġanalysts":1066,"Ġtalk":1067,"Ġsituation":1068,"ri":1069,"ated":1070,"ke":1071,"Ġwants":1072,"ag":1073,"Ġlives":1074,"om":1075,"Ġal":1076,"Ġdemand":1077,"Ġsafety":1078,"Ġrest":1079,"ĠCouncil":1080,"Ġpersonal":1081,"Ġsite":1082,"ĠRussian":1083,"Ġmid":1084,"Ġnothing":1085,"Ġwhole":1086,"Ġbill":1087,"Ġsold":1088,"ĠBritish":1089,"se":1090,"Ġremain":1091,"12":1092,"Ġforeign":1093,"Ġshooting":1094,"Ġstay":1095,"50":1096,"ang":1097,"Ġhospital":1098,"Ġbad":1099,"Ġaddress":1100,"ĠKorea":1101,"Ġhappened":1102,"Ġcharges":1103,"Ġwhite":1104,"Ġ31":1105,"If":1106,"Ġearnings":1107,"Ġbreak":1108,"Ġlight":1109,"Ġterms":1110,"ĠChinese":1111,"ĠSenate":1112,"ana":1113,"Ġidea":1114,"ap":1115,"of":1116,"Ġnine":1117,"Ġcompared":1118,"Ġbuild":1119,"ard":1120,"In":1121,"Ġsimilar":1122,"Ġgas":1123,"Ġvictory":1124,"Ġ2012":1125,"Ġdebt":1126,"ĠMar":1127,"Ġarrested":1128,"Ġcomment":1129,"Ġincreased":1130,"Ġmedical":1131,"Ġ29":1132,"ĠJan":1133,"Ġgroups":1134,"Ġdespite":1135,"Ġfall":1136,"Ġtell":1137,"Ġworkers":1138,"Ġtown":1139,"Ã©":1140,"Ġwife":1141,"Ġquestions":1142,"Ġcontinued":1143,"Ġheart":1144,"Ġmet":1145,"Ġbrought":1146,"Ġhelped":1147,"ĠCongress":1148,"Ġstep":1149,"Ġfather":1150,"Ġmoment":1151,"Ġproduct":1152,"Ġprobably":1153,"Ġlargest":1154,"Ġvehicle":1155,"ĠEngland":1156,"Ġallow":1157,"Ġstarting":1158,"Ġkids":1159,"Ġincident":1160,"Ġnet":1161,"Ġrates":1162,"ĠRead":1163,"Ġpressure":1164,"Ġincluded":1165,"Ġread":1166,"Ġissued":1167,"ol":1168,"Ġeither":1169,"Ġefforts":1170,"Ġincludes":1171,"ĠRepublican":1172,"ish":1173,"âĢ¦":1174,"Ġgoals":1175,"aj":1176,"Ġen":1177,"x":1178,"Ġraised":1179,"au":1180,"Ġlonger":1181,"ut":1182,"Ġwatch":1183,"ĠTexas":1184,"You":1185,"Ġrange":1186,"nd":1187,"Ġfunds":1188,"Ġremains":1189,"ĠMark":1190,"Ġ60":1191,"Ġque":1192,"sh":1193,"Ġinterview":1194,"Ġrather":1195,"Ġresidents":1196,"Ġgrowing":1197,"Ġpre":1198,"Ġpaid":1199,"Ġcases":1200,"ĠReuters":1201,"Ġdifficult":1202,"Ġsign":1203,"ĠGoogle":1204,"Ġhttps":1205,"ĠPaul":1206,"Ġliving":1207,"day":1208,"ĠQ":1209,"iz":1210,"ĠRed":1211,"Ġland":1212,"They":1213,"ĠRoad":1214,"_":1215,"ĠThese":1216,"Ġview":1217,"Ġagency":1218,"Ġreason":1219,"Ġallowed":1220,"ĠAustralia":1221,"az":1222,"ĠRe":1223,"Ġturned":1224,"11":1225,"Ġnation":1226,"Ġready":1227,"Ġpress":1228,"Ġbudget":1229,"Ġdaily":1230,"ĠChief":1231,"Ġfamilies":1232,"Ġsignificant":1233,"ĠFirst":1234,"Ġthemselves":1235,"Ġj":1236,"Ġruns":1237,"Ġaccused":1238,"Ġtakes":1239,"Ġspent":1240,"Ġvia":1241,"ot":1242,"ina":1243,"25":1244,"land":1245,"Ġexample":1246,"Ġauthorities":1247,"Ġdate":1248,"Ġended":1249,"all":1250,"Reuters":1251,"Ġbusinesses":1252,"ans":1253,"Ġdetails":1254,"Ġground":1255,"Ġpretty":1256,"ĠApple":1257,"ation":1258,"ĠSmith":1259,"ĠCompany":1260,"ĠFlorida":1261,"Ġdrug":1262,"Ġresponse":1263,"one":1264,"Ġeducation":1265,"Ġmean":1266,"Ġleague":1267,"Ġanyone":1268,"Ġminister":1269,"Ġtitle":1270,"Ġadding":1271,"Ġproblems":1272,"Ġopening":1273,"Ġconditions":1274,"Ġred":1275,"Ġdecided":1276,"Å":1277,"Ġposted":1278,"term":1279,"Ġamount":1280,"ĠEU":1281,"Ġsuccess":1282,"Ġevidence":1283,"ĠObama":1284,"Ġaddition":1285,"Ġprovided":1286,"ĠLos":1287,"Ġagreement":1288,"Ġstage":1289,"ens":1290,"Ġrelationship":1291,"ĠGeneral":1292,"Ġsector":1293,"Ġstudent":1294,"ating":1295,"Ġtest":1296,"\",":1297,"Ġwinning":1298,"Ġfelt":1299,"Ġsource":1300,"Z":1301,"Ġseems":1302,"Ġcause":1303,"Ġschools":1304,"Ġdrive":1305,"Ġensure":1306,"Ġhuge":1307,"ĠMy":1308,"ĠHealth":1309,"Ġscene":1310,"Ġgiving":1311,"Ġcenter":1312,"Ġpositive":1313,"Ġyards":1314,"Ġjobs":1315,"Ġaccount":1316,"Ġheard":1317,"Ġquality":1318,"Ġways":1319,"Ġimmediately":1320,"Ġemployees":1321,"are":1322,"Ġpass":1323,"ĠCEO":1324,"Ġreceive":1325,"Ġlooks":1326,"ĠAfrica":1327,"Ġthroughout":1328,"led":1329,"Ġrelated":1330,"Ġsell":1331,"ĠUnion":1332,"ĠPhoto":1333,"ter":1334,"Ġquickly":1335,"ĠHow":1336,"Ġvarious":1337,"Ġreach":1338,"Ġpick":1339,"Ġcharged":1340,"Ġquite":1341,"ent":1342,"q":1343,"ins":1344,"Ġphoto":1345,"Ġunderstand":1346,"ĠâĢ¢":1347,"Ġreached":1348,"Ġtrack":1349,"uk":1350,"Ġeffort":1351,"ville":1352,"Ġcentral":1353,"Ġdaughter":1354,"Ġcontract":1355,"Ġinjury":1356,"Ġopened":1357,"Ġ($":1358,"Ġstraight":1359,"17":1360,"Ġcredit":1361,"ĠIndian":1362,"Ġsexual":1363,"Ġworks":1364,"Ġeasy":1365,"18":1366,"Ġclosed":1367,"Ġh":1368,"Ġhappen":1369,"Ġforce":1370,"ler":1371,"Ġhappy":1372,"Ġshared":1373,"Ġoverall":1374,"Ġmoving":1375,"á":1376,"Ġprojects":1377,"ĠBlack":1378,"Ġconcerns":1379,"Ġclass":1380,"Ġtried":1381,"Ġappeared":1382,"Ġcontent":1383,"ĠDistrict":1384,"Ġterm":1385,"Ġinstead":1386,"ĠOffice":1387,"Ġcontinues":1388,"Ġlevels":1389,"Ġafternoon":1390,"Ġfund":1391,"Ġsale":1392,"Ġdriver":1393,"Ġask":1394,"Ġcannot":1395,"ner":1396,"end":1397,"ĠHere":1398,"field":1399,"Ġstore":1400,"www":1401,"Ġcertain":1402,"Ġself":1403,"Ġdollar":1404,"ĠHer":1405,"Ġpopular":1406,"Ġfollow":1407,"Ġspending":1408,"by":1409,"Ġmoved":1410,"Ġgoes":1411,"Ġcreated":1412,"Ġstand":1413,"Ġoperations":1414,"Ġlooked":1415,"Ġtreatment":1416,"ov":1417,"Ġdistrict":1418,"Ġsigned":1419,"Ġhands":1420,"Ġmodel":1421,"ĠAngeles":1422,"Ġy":1423,"Ġborder":1424,"Ġincome":1425,"ĠLast":1426,"Ġcharge":1427,"Ġdriving":1428,"ĠJapan":1429,"Ġrise":1430,"Ġtalks":1431,"Ġfollowed":1432,"Ġpreviously":1433,"Ġusers":1434,"Ġfunding":1435,"ĠJohnson":1436,"Ġ":1437,"ou":1438,"ai":1439,"Ġnamed":1440,"Ġfriend":1441,"ĠNov":1442,"Ġdefense":1443,"ĠBritain":1444,"Ġentire":1445,"Ġtrading":1446,"Ġfailed":1447,"ĠEl":1448,"Ġclaims":1449,"Ġcomments":1450,"Ġbeat":1451,"ib":1452,"Ġbasis":1453,"ĠJones":1454,"Ġpresent":1455,"ĠBe":1456,"Ġdouble":1457,"Ġrose":1458,"ite":1459,"Ġability":1460,"Ġoriginal":1461,"Ġdead":1462,"ĠCommission":1463,"ĠMe":1464,"Ġcompetition":1465,"Ġ2011":1466,"Ġknew":1467,"Ġmaterial":1468,"av":1469,"ĠFrance":1470,"Ġscore":1471,"Ġsense":1472,"Ġserious":1473,"Ġconfirmed":1474,"Ġanti":1475,"Ġviolence":1476,"Ġimprove":1477,"son":1478,"Ã³":1479,"ĠAP":1480,"Ġsh":1481,"Ġhost":1482,"ĠMike":1483,"Ġpatients":1484,"ĠNFL":1485,"Ġcrisis":1486,"Ġrevealed":1487,"ach":1488,"ĠPrime":1489,"Ġbuilt":1490,"ĠNot":1491,"Ġrules":1492,"Ġelse":1493,"Ġdepartment":1494,"Ġitself":1495,"ise":1496,"500":1497,"Ġcomplete":1498,"ion":1499,"Ġtrial":1500,"ĠBay":1501,"ĠDec":1502,"Ġattention":1503,"Ġtravel":1504,"ĠCentral":1505,"ry":1506,"Ġagreed":1507,"Ġmind":1508,"ĠMc":1509,"Ġ70":1510,"Ġcontact":1511,"ari":1512,"ĠTimes":1513,"Ġspot":1514,"ĠFrench":1515,"Ġgets":1516,"op":1517,"Ġbrand":1518,"Ġcalls":1519,"Ġbanks":1520,"Ġdesign":1521,"Ġsafe":1522,"Ġoffers":1523,"Ġpractice":1524,"ĠOf":1525,"Ã¡":1526,"ling":1527,"Ġtrue":1528,"off":1529,"Ġnumbers":1530,"Ġfun":1531,"Ġlearn":1532,"Ġmultiple":1533,"ĠIs":1534,"res":1535,"als":1536,"Ġcommon":1537,"ized":1538,"Ġchallenge":1539,"Ġcommittee":1540,"ĠOur":1541,"Ġbase":1542,"ani":1543,"ĠAssociation":1544,"ung":1545,"Ġnetwork":1546,"ĠBrown":1547,"Ġapproach":1548,"16":1549,"Ġfinished":1550,"Ġreview":1551,"Ġrequired":1552,"Ġapp":1553,"ĠMan":1554,"ĠâĢ¦":1555,"twitter":1556,"ĠDemocratic":1557,"13":1558,"Ġevening":1559,"ĠTom":1560,"Ã¤":1561,"ĠAssociated":1562,"ĠCanadian":1563,"Ġcollege":1564,"Ġspokesman":1565,"Ġarticle":1566,"Ġtowards":1567,"ĠChicago":1568,"Ġmovie":1569,"14":1570,"ity":1571,"Ġforces":1572,"ĠChris":1573,"ĠDemocrats":1574,"Ġfeatures":1575,"Ġhearing":1576,"ĠX":1577,"ĠAlso":1578,"Ġmessage":1579,"age":1580,"Ġnoted":1581,"ĠSuper":1582,"Ġthousands":1583,"aw":1584,"ĠBill":1585,"ĠAr":1586,"ĠLa":1587,"ip":1588,"Ġ/":1589,"ĠDuring":1590,"Ġnote":1591,".)":1592,"Ġwrong":1593,"if":1594,"Ġpassed":1595,"ĠTwo":1596,"Ġdie":1597,",'":1598,"ĠDon":1599,"ĠGermany":1600,"Ġletter":1601,"Ġdescribed":1602,"ĠIran":1603,"ĠWilliams":1604,"Ġparticularly":1605,"Ġadd":1606,"Ġconversation":1607,"ĠSe":1608,"Ġhighest":1609,"be":1610,"Ġhomes":1611,"Ġsports":1612,"Ġgone":1613,"ĠAd":1614,"Ġel":1615,"Ġopportunities":1616,"Ġwords":1617,"Ġleaving":1618,"ĠChristmas":1619,"As":1620,"ĠGovernment":1621,"Ġsimply":1622,"Ġhusband":1623,"ĠResearch":1624,"ĠMexico":1625,"ates":1626,"ale":1627,"ĠGreen":1628,"$":1629,"od":1630,"ĠHall":1631,"Ġnatural":1632,"Ġoperating":1633,"les":1634,"ations":1635,"ĠKim":1636,"Ġgold":1637,"ok":1638,"Ġprovides":1639,"(":1640,"ell":1641,"Ġbegin":1642,"ĠParty":1643,"back":1644,"ĠAmazon":1645,"19":1646,"Ġmajority":1647,"ĠEven":1648,"Ġcheck":1649,"Ġweather":1650,"Ġorganization":1651,"Ġstories":1652,"ĠCar":1653,"Ġforced":1654,"ĠGeorge":1655,"Ġwalk":1656,"ong":1657,"Ġfiled":1658,"ĠJustice":1659,"Ġlaunched":1660,"Ġoffered":1661,"Ġwww":1662,"Ġconstruction":1663,"ĠBen":1664,"Ġserved":1665,"Ġ...":1666,"Ġparts":1667,"Ġcancer":1668,"Ġguys":1669,"Reporting":1670,"ash":1671,"less":1672,"Ġleadership":1673,"ĠCommittee":1674,"Ġregular":1675,"Ġcouncil":1676,"Ġcars":1677,"ĠDirector":1678,"Ġjudge":1679,"Ġvictims":1680,"ĠDaily":1681,"Ġkept":1682,"Ġeffect":1683,"Ġbeyond":1684,"pm":1685,"Ġtalking":1686,"Ġconsidered":1687,"ore":1688,"ĠAdvertisement":1689,"Ġst":1690,"ED":1691,"Ġmiddle":1692,"Ġraise":1693,"we":1694,"Ġclaimed":1695,"ino":1696,"Ġalleged":1697,"ĠPro":1698,"ĠScott":1699,"ĠOct":1700,"Ġconsider":1701,"ĠShare":1702,"Ġtraffic":1703,"ĠAfrican":1704,"Ġcouldn":1705,"Ġtoward":1706,"Ġsearch":1707,"But":1708,"Ġlaunch":1709,"Ġinjured":1710,"That":1711,"Ġalthough":1712,"Ġactivities":1713,"Ġchanged":1714,"Ġsources":1715,"Ġmissing":1716,"Ġu":1717,"Ġ35":1718,"Ġcover":1719,"ised":1720,"Ġ|":1721,"ow":1722,"ES":1723,"Ġdecades":1724,"ich":1725,"Ġcaused":1726,"Ġelections":1727,"ane":1728,"IS":1729,"Ġfeet":1730,"ĠBar":1731,"Ġversion":1732,"Ġgrow":1733,"Ġvehicles":1734,"Ġoptions":1735,"Ġindividual":1736,"Ġenvironment":1737,"ĠRobert":1738,"ĠValley":1739,"ĠFrom":1740,"per":1741,"ara":1742,"Ġsystems":1743,"Ġprotect":1744,"ĠKing":1745,"Ġinjuries":1746,"Ġfinally":1747,"Ġnuclear":1748,"40":1749,"Ġratio":1750,"Ġgun":1751,"ĠPakistan":1752,"ĠManagement":1753,"ĠAir":1754,"ce":1755,"Ġopposition":1756,"ment":1757,"ick":1758,"Ġpro":1759,"Ġact":1760,"Ġplatform":1761,"Ġlack":1762,"Ġpair":1763,"Ġ500":1764,"Ġcalling":1765,"ary":1766,"Ġprograms":1767,"Ġscheduled":1768,"Ġfast":1769,"Ġjoined":1770,"ĠWar":1771,"ĠEditing":1772,"ĠSince":1773,"ĠRyan":1774,"ĠMac":1775,"ĠBig":1776,"ĠLake":1777,"Ġdigital":1778,"When":1779,"ue":1780,"Ġassets":1781,"Ġseeing":1782,"ĠAct":1783,"Ġpartner":1784,"ĠBoard":1785,"Ġbeginning":1786,"Ġsupply":1787,"Ġmiles":1788,"Ġprison":1789,"ons":1790,"ĠAmericans":1791,"ub":1792,"ĠOr":1793,"me":1794,"Ġbenefits":1795,"Ġbenefit":1796,"Ġmeasures":1797,"Ġhear":1798,"Ġparties":1799,"Ġsuccessful":1800,"ĠJust":1801,"Ġvictim":1802,"Ġblock":1803,"Ġlimited":1804,"Ġtrip":1805,"ĠPeople":1806,"Ġserve":1807,"Ġart":1808,"ism":1809,"Ġwide":1810,"ĠSch":1811,"Ġ80":1812,"ĠThomas":1813,"Ġ90":1814,"Ġstocks":1815,"Ġgirl":1816,"ĠAsia":1817,"Ġseeking":1818,"Ġcertainly":1819,"ĠServices":1820,"ĠCollege":1821,"Ġcommunities":1822,"Ġextra":1823,"Ġ2010":1824,"ness":1825,"Ġholding":1826,"ous":1827,"Ġtough":1828,"ade":1829,"Ġmobile":1830,"Ġowns":1831,"ĠDo":1832,"ĠFire":1833,"Ġspoke":1834,"Ġreturned":1835,"Ġsize":1836,"Ġcriminal":1837,"ĠInstagram":1838,"Ġoffering":1839,"ĠGod":1840,"ĠService":1841,"Ġpage":1842,"her":1843,"Ġdeep":1844,"wood":1845,"Ġcrime":1846,"ĠSports":1847,"ile":1848,"ĠGlobal":1849,"Ġproposed":1850,"ain":1851,"Ġsession":1852,"ĠFederal":1853,"ĠSyria":1854,"Ġch":1855,"Ġthreat":1856,"Ġallegations":1857,"ĠRepublicans":1858,"ĠGerman":1859,"Ġstrategy":1860,"Ġcommercial":1861,"ING":1862,"ĠSecretary":1863,"Q":1864,"Ġreporters":1865,"100":1866,"ĠCapital":1867,"ĠBoth":1868,"ĠPost":1869,"ĠIsrael":1870,"Ġsave":1871,"ts":1872,"ill":1873,"Ġdrop":1874,"Ġreserved":1875,"ĠMany":1876,"Ġavoid":1877,"Ġ200":1878,"iv":1879,"Ġdamage":1880,"Ġcondition":1881,"Ġdropped":1882,"Ġdoor":1883,"Ġplanning":1884,"ire":1885,"Ġcard":1886,"Ġdesigned":1887,"Ġreduce":1888,"AN":1889,"ĠUn":1890,"ford":1891,"ĠThen":1892,"Ġpic":1893,"ĠCopyright":1894,"Ġrain":1895,"ĠMartin":1896,"Ġdomestic":1897,"45":1898,"ge":1899,"Ġmurder":1900,"Ġspeech":1901,"line":1902,"Ġhelping":1903,"Ġplanned":1904,"Ġfeature":1905,"ud":1906,"Ġtype":1907,"ham":1908,"ĠPublic":1909,"ja":1910,"Ġinsurance":1911,"Ġattacks":1912,"ĠCorp":1913,"Ġforecast":1914,"Ġresources":1915,"ma":1916,"?\"":1917,"ĠAm":1918,"ĠSept":1919,"Ġpush":1920,"Ġattorney":1921,"23":1922,"Ġemergency":1923,"Ġwinner":1924,"Ġblood":1925,"Ġnorth":1926,"ĠFeb":1927,"Ġbaby":1928,"Ġfloor":1929,"Ġspend":1930,"Ġex":1931,"Ġdollars":1932,"Ġunit":1933,"ĠHill":1934,"Ġder":1935,"ĠAbout":1936,"Ġalone":1937,"ization":1938,"Ġpresidential":1939,"Ġactivity":1940,"ĠTHE":1941,"ee":1942,"ber":1943,"ĠOther":1944,"Ġowner":1945,"Ġhour":1946,"Ġcities":1947,"Ġanswer":1948,"ide":1949,"Ġfully":1950,"ek":1951,"ists":1952,"Ġcoverage":1953,"Ġvs":1954,"Ġfigure":1955,"Ġpopulation":1956,"org":1957,"Ġsnow":1958,"Ġbeco