[PAD]
[unused1]
[unused2]
[unused3]
[unused4]
[unused5]
[unused6]
[unused7]
[unused8]
[unused9]
[unused10]
[unused11]
[unused12]
[unused13]
[unused14]
[unused15]
[unused16]
[unused17]
[unused18]
[unused19]
[unused20]
[unused21]
[unused22]
[unused23]
[unused24]
[unused25]
[unused26]
[unused27]
[unused28]
[unused29]
[unused30]
[unused31]
[unused32]
[unused33]
[unused34]
[unused35]
[unused36]
[unused37]
[unused38]
[unused39]
[unused40]
[unused41]
[unused42]
[unused43]
[unused44]
[unused45]
[unused46]
[unused47]
[unused48]
[unused49]
[unused50]
[unused51]
[unused52]
[unused53]
[unused54]
[unused55]
[unused56]
[unused57]
[unused58]
[unused59]
[unused60]
[unused61]
[unused62]
[unused63]
[unused64]
[unused65]
[unused66]
[unused67]
[unused68]
[unused69]
[unused70]
[unused71]
[unused72]
[unused73]
[unused74]
[unused75]
[unused76]
[unused77]
[unused78]
[unused79]
[unused80]
[unused81]
[unused82]
[unused83]
[unused84]
[unused85]
[unused86]
[unused87]
[unused88]
[unused89]
[unused90]
[unused91]
[unused92]
[unused93]
[unused94]
[unused95]
[unused96]
[unused97]
[unused98]
[unused99]
[UNK]
[CLS]
[SEP]
[MASK]
[unused100]
[unused101]
!
"
#
$
%
&
'
(
)
*
+
,
-
.
/
0
1
2
3
4
5
6
7
8
9
:
;
<
=
>
?
@
A
B
C
D
E
F
G
H
I
J
K
L
M
N
O
P
Q
R
S
T
U
V
W
X
Y
Z
[
\
]
^
_
`
a
b
c
d
e
f
g
h
i
j
k
l
m
n
o
p
q
r
s
t
u
v
w
x
y
z
{
|
}
~
¡
¢
£
¥
§
¨
©
ª
«
¬
®
°
±
²
³
´
µ
¶
·
¹
º
»
¼
½
¾
¿
À
Á
Â
Ä
Å
Æ
Ç
È
É
Í
Î
Ñ
Ó
Ö
×
Ø
Ú
Ü
Þ
ß
à
á
â
ã
ä
å
æ
ç
è
é
ê
ë
ì
í
î
ï
ð
ñ
ò
ó
ô
õ
ö
÷
ø
ù
ú
û
ü
ý
þ
ÿ
Ā
ā
ă
ą
Ć
ć
Č
č
ď
Đ
đ
ē
ė
ę
ě
ğ
ġ
Ħ
ħ
ĩ
Ī
ī
İ
ı
ļ
Ľ
ľ
Ł
ł
ń
ņ
ň
ŋ
Ō
ō
ŏ
ő
Œ
œ
ř
Ś
ś
Ş
ş
Š
š
Ţ
ţ
ť
ũ
ū
ŭ
ů
ű
ų
ŵ
ŷ
ź
Ż
ż
Ž
ž
Ə
ƒ
ơ
ư
ǎ
ǐ
ǒ
ǔ
ǫ
Ș
ș
Ț
ț
ɐ
ɑ
ɔ
ɕ
ə
ɛ
ɡ
ɣ
ɨ
ɪ
ɲ
ɾ
ʀ
ʁ
ʂ
ʃ
ʊ
ʋ
ʌ
ʐ
ʑ
ʒ
ʔ
ʰ
ʲ
ʳ
ʷ
ʻ
ʼ
ʾ
ʿ
ˈ
ː
ˡ
ˢ
ˣ
́
̃
̍
̯
͡
Α
Β
Γ
Δ
Ε
Η
Θ
Ι
Κ
Λ
Μ
Ν
Ο
Π
Σ
Τ
Φ
Χ
Ψ
Ω
ά
έ
ή
ί
α
β
γ
δ
ε
ζ
η
θ
ι
κ
λ
μ
ν
ξ
ο
π
ρ
ς
σ
τ
υ
φ
χ
ψ
ω
ό
ύ
ώ
І
Ј
А
Б
В
Г
Д
Е
Ж
З
И
К
Л
М
Н
О
П
Р
С
Т
У
Ф
Х
Ц
Ч
Ш
Э
Ю
Я
а
б
в
г
д
е
ж
з
и
й
к
л
м
н
о
п
р
с
т
у
ф
х
ц
ч
ш
щ
ъ
ы
ь
э
ю
я
ё
і
ї
ј
њ
ћ
Ա
Հ
ա
ե
ի
կ
մ
յ
ն
ո
ս
տ
ր
ւ
ְ
ִ
ֵ
ֶ
ַ
ָ
ֹ
ּ
א
ב
ג
ד
ה
ו
ז
ח
ט
י
כ
ל
ם
מ
ן
נ
ס
ע
פ
צ
ק
ר
ש
ת
،
ء
آ
أ
إ
ئ
ا
ب
ة
ت
ث
ج
ح
خ
د
ذ
ر
ز
س
ش
ص
ض
ط
ظ
ع
غ
ف
ق
ك
ل
م
ن
ه
و
ى
ي
َ
ِ
ٹ
پ
چ
ک
گ
ہ
ی
ے
ं
आ
क
ग
च
ज
ण
त
द
ध
न
प
ब
भ
म
य
र
ल
व
श
ष
स
ह
ा
ि
ी
ु
े
ो
्
।
॥
আ
ই
এ
ও
ক
খ
গ
চ
ছ
জ
ট
ত
থ
দ
ধ
ন
প
ব
ম
য
র
ল
শ
স
হ
়
া
ি
ী
ু
ে
ো
্
য়
க
த
ப
ம
ய
ர
ல
வ
ா
ி
ு
்
ร
་
ག
ང
ད
ན
བ
མ
ར
ལ
ས
ི
ུ
ེ
ོ
ა
ე
ი
ლ
ნ
ო
რ
ს
ᴬ
ᴵ
ᵀ
ᵃ
ᵇ
ᵈ
ᵉ
ᵍ
ᵏ
ᵐ
ᵒ
ᵖ
ᵗ
ᵘ
ᵢ
ᵣ
ᵤ
ᵥ
ᶜ
ᶠ
ḍ
Ḥ
ḥ
Ḩ
ḩ
ḳ
ṃ
ṅ
ṇ
ṛ
ṣ
ṭ
ạ
ả
ấ
ầ
ẩ
ậ
ắ
ế
ề
ể
ễ
ệ
ị
ọ
ố
ồ
ổ
ộ
ớ
ờ
ợ
ụ
ủ
ứ
ừ
ử
ữ
ự
ỳ
ỹ
ἀ
ἐ
ὁ
ὐ
ὰ
ὶ
ὸ
ῆ
ῖ
ῦ
ῶ
‐
‑
‒
–
—
―
‖
‘
’
‚
“
”
„
†
‡
•
…
‰
′
″
⁄
⁰
ⁱ
⁴
⁵
⁶
⁷
⁸
⁹
⁺
⁻
ⁿ
₀
₁
₂
₃
₄
₅
₆
₇
₈
₉
₊
₍
₎
ₐ
ₑ
ₒ
ₓ
ₕ
ₖ
ₘ
ₙ
ₚ
ₛ
ₜ
₤
€
₱
₹
ℓ
№
ℝ
⅓
←
↑
→
↔
⇌
⇒
∂
∈
−
∗
∘
√
∞
∧
∨
∩
∪
≈
≠
≡
≤
≥
⊂
⊆
⊕
⋅
─
│
■
●
★
☆
☉
♠
♣
♥
♦
♭
♯
⟨
⟩
ⱼ
、
。
《
》
「
」
『
』
〜
い
う
え
お
か
き
く
け
こ
さ
し
す
せ
そ
た
ち
つ
て
と
な
に
の
は
ひ
ま
み
む
め
も
や
ゆ
よ
ら
り
る
れ
ん
ア
ィ
イ
ウ
エ
オ
カ
ガ
キ
ク
グ
コ
サ
シ
ジ
ス
ズ
タ
ダ
ッ
テ
デ
ト
ド
ナ
ニ
ハ
バ
パ
フ
ブ
プ
マ
ミ
ム
ャ
ュ
ラ
リ
ル
レ
ロ
ン
・
ー
一
三
上
下
中
事
二
井
京
人
亻
仁
佐
侍
光
公
力
北
十
南
原
口
史
司
吉
同
和
囗
国
國
土
城
士
大
天
太
夫
女
子
宀
安
宮
宿
小
尚
山
島
川
州
平
年
心
愛
戸
文
新
方
日
明
星
書
月
木
本
李
村
東
松
林
正
武
氏
水
氵
江
河
海
版
犬
王
生
田
白
皇
省
真
石
社
神
竹
美
義
花
藤
西
谷
車
辶
道
郎
郡
部
野
金
長
門
陽
青
食
馬
高
龍
龸
사
씨
의
이
한
ﬁ
ﬂ
！
（
）
，
－
／
：
the
of
and
to
in
was
The
is
for
as
on
with
that
##s
his
by
he
at
from
it
her
He
had
an
were
you
be
In
she
are
but
which
It
not
or
have
my
him
one
this
me
has
also
up
their
first
out
who
been
they
She
into
all
would
its
##ing
time
two
##a
##e
said
about
when
over
more
other
can
after
back
them
then
##ed
there
like
so
only
##n
could
##d
##i
##y
what
no
##o
where
This
made
than
if
You
##ly
through
we
before
##r
just
some
##er
years
do
New
##t
down
between
new
now
will
three
most
On
around
year
used
such
being
well
during
They
know
against
under
later
did
part
known
off
while
His
re
...
##l
people
until
way
American
didn
University
your
both
many
get
United
became
head
There
second
As
work
any
But
still
again
born
even
eyes
After
including
de
took
And
long
team
season
family
see
right
same
called
name
because
film
don
10
found
much
school
##es
going
won
place
away
We
day
left
John
000
hand
since
World
these
how
make
number
each
life
area
man
four
go
No
here
very
National
##m
played
released
never
began
States
album
home
last
too
held
several
May
own
##on
take
end
School
##h
ll
series
What
want
use
another
city
When
2010
side
At
may
That
came
face
June
think
game
those
high
March
early
September
##al
2011
looked
July
state
small
thought
went
January
October
##u
based
August
##us
world
good
April
York
us
12
2012
2008
For
2009
group
along
few
South
little
##k
following
November
something
2013
December
set
2007
old
2006
2014
located
##an
music
County
City
former
##in
room
ve
next
All
##man
got
father
house
##g
body
15
20
18
started
If
2015
town
our
line
War
large
population
named
British
company
member
five
My
single
##en
age
State
moved
February
11
Her
should
century
government
built
come
best
show
However
within
look
men
door
without
need
wasn
2016
water
One
system
knew
every
died
League
turned
asked
North
St
wanted
building
received
song
served
though
felt
##ia
station
band
##ers
local
public
himself
different
death
say
##1
30
##2
2005
16
night
behind
children
English
members
near
saw
together
son
14
voice
village
13
hands
help
##3
due
French
London
top
told
open
published
third
2017
play
across
During
put
final
often
include
25
##le
main
having
2004
once
ever
let
book
led
gave
late
front
find
club
##4
German
included
species
College
form
opened
mother
women
enough
West
must
2000
power
really
17
making
half
##6
order
might
##is
given
million
times
days
point
full
service
With
km
major
##7
original
become
seen
II
north
six
##te
love
##0
national
International
##5
24
So
District
lost
run
couldn
career
always
##9
2003
##th
country
##z
House
air
tell
south
worked
woman
player
##A
almost
war
River
##ic
married
continued
Then
James
close
black
short
##8
##na
using
history
returned
light
car
##ra
sure
William
things
General
##ry
2002
better
support
100
among
From
feet
King
anything
21
19
established
district
2001
feel
great
##ton
level
Cup
These
written
games
others
already
title
story
##p
law
thing
US
record
role
however
By
students
England
white
control
least
inside
land
##C
22
give
community
hard
##ie
non
##c
produced
George
round
period
Park
business
various
##ne
does
present
wife
far
taken
per
reached
David
able
version
working
young
live
created
joined
East
living
appeared
case
High
done
23
important
President
Award
France
position
office
looking
total
general
class
To
production
##S
football
party
brother
keep
mind
free
Street
hair
announced
development
either
nothing
moment
Church
followed
wrote
why
India
San
election
1999
lead
How
##ch
##rs
words
European
course
considered
America
arms
Army
political
##la
28
26
west
east
ground
further
church
less
site
First
Not
Australia
toward
California
##ness
described
works
An
Council
heart
past
military
27
##or
heard
field
human
soon
founded
1998
playing
trying
##x
##ist
##ta
television
mouth
although
taking
win
fire
Division
##ity
Party
Royal
program
Some
Don
Association
According
tried
TV
Paul
outside
daughter
Best
While
someone
match
recorded
Canada
closed
region
Air
above
months
elected
##da
##ian
road
##ar
brought
move
1997
leave
##um
Thomas
1996
am
low
Robert
formed
person
services
points
Mr
miles
##b
stop
rest
doing
needed
international
release
floor
start
sound
call
killed
real
dark
research
finished
language
Michael
professional
change
sent
50
upon
29
track
hit
event
2018
term
example
Germany
similar
return
##ism
fact
pulled
stood
says
ran
information
yet
result
developed
girl
##re
God
1995
areas
signed
decided
##ment
Company
seemed
##el
co
turn
race
common
video
Charles
Indian
##ation
blood
art
red
##able
added
rather
1994
met
director
addition
design
average
minutes
##ies
##ted
available
bed
coming
friend
idea
kind
Union
Road
remained
##ting
everything
##ma
running
care
finally
Chinese
appointed
1992
Australian
##ley
popular
mean
teams
probably
##land
usually
project
social
Championship
possible
word
Russian
instead
mi
herself
##T
Peter
Hall
Center
seat
style
money
1993
else
Department
table
Music
current
31
features
special
events
character
Two
square
sold
debut
##v
process
Although
Since
##ka
40
Central
currently
education
placed
lot
China
quickly
forward
seven
##ling
Europe
arm
performed
Japanese
1991
Henry
Now
Dr
##ion
week
Group
myself
big
UK
Washington
ten
deep
1990
Club
Japan
space
La
directed
smile
episode
hours
whole
##de
##less
Why
wouldn
designed
strong
training
changed
Society
stage
involved
hadn
towards
leading
police
eight
kept
Institute
study
largest
child
eventually
private
modern
Court
throughout
getting
originally
attack
##E
talk
Great
longer
songs
alone
##ine
wide
dead
walked
shot
##ri
Oh
force
##st
Art
today
friends
Island
Richard
1989
center
construction
believe
size
White
ship
completed
##B
gone
Just
rock
sat
##R
radio
below
entire
families
league
includes
type
lived
official
range
hold
featured
Most
##ter
president
passed
means
##f
forces
lips
Mary
Do
guitar
##ce
food
wall
Of
spent
Its
performance
hear
##P
Western
reported
sister
##et
morning
##M
especially
##ive
Minister
itself
post
bit
groups
1988
##tion
Black
##ng
Well
raised
sometimes
Canadian
Paris
Spanish
replaced
schools
Academy
leaving
central
female
Christian
Jack
whose
college
onto
provided
##D
##ville
players
actually
stopped
##son
Museum
doesn
##ts
books
fight
allowed
##ur
beginning
Records
awarded
parents
coach
##os
Red
saying
##ck
Smith
Yes
Lake
##L
aircraft
1987
##ble
previous
ft
action
Italian
African
happened
vocals
Act
future
court
##ge
1986
degree
phone
##ro
Is
countries
winning
breath
Love
river
matter
Lord
Other
list
self
parts
##ate
provide
cut
shows
plan
1st
interest
##ized
Africa
stated
Sir
fell
owned
earlier
ended
competition
attention
1985
lower
nearly
bad
older
stay
Saint
##se
certain
1984
fingers
blue
try
fourth
Grand
##as
king
##nt
makes
chest
movement
states
moving
data
introduced
model
date
section
Los
deal
##I
skin
entered
middle
success
Texas
##w
summer
island
##N
Republic
length
husband
1980
##ey
reason
anyone
forced
via
base
500
job
covered
Festival
Roman
successful
rights
cover
Man
writing
Ireland
##F
related
goal
takes
buildings
true
weeks
1983
Because
opening
novel
ISBN
meet
gold
##ous
mid
km²
standing
Football
Chicago
shook
whom
##ki
1982
Day
feeling
scored
boy
higher
Force
leader
heavy
fall
question
sense
army
Second
energy
meeting
themselves
kill
##am
board
census
##ya
##ns
mine
meant
market
required
battle
campaign
attended
approximately
Kingdom
runs
active
##ha
contract
clear
previously
health
1979
Arts
complete
Catholic
couple
units
##ll
##ty
Committee
shoulder
sea
systems
listed
##O
caught
tournament
##G
northern
author
Film
Your
##men
holding
offered
personal
1981
southern
artist
traditional
studio
200
capital
##ful
regular
ask
giving
organization
month
news
Are
read
managed
helped
studied
student
defeated
natural
industry
Year
noted
decision
Government
quite
##id
smiled
1972
Maybe
tracks
##ke
Mark
al
media
engine
hour
Their
relationship
plays
property
structure
1976
ago
Hill
Martin
1978
ready
Many
Like
Bay
immediately
generally
Italy
Greek
practice
caused
division
significant
Joseph
speed
Let
thinking
completely
1974
primary
mostly
##field
##K
1975
##to
Even
writer
##led
dropped
magazine
collection
understand
route
highest
particular
films
lines
network
Science
loss
carried
direction
green
1977
location
producer
according
Women
Queen
neck
thus
independent
view
1970
Angeles
Soviet
distance
problem
Board
tour
western
income
appearance
access
Mexico
nodded
street
surface
arrived
believed
Old
1968
1973
becoming
whether
1945
figure
singer
stand
Following
issue
window
wrong
pain
everyone
lives
issues
park
slowly
la
act
##va
bring
Lee
operations
key
comes
fine
cold
famous
Navy
1971
Me
additional
individual
##ner
Zealand
goals
county
contains
Service
minute
2nd
reach
talking
particularly
##ham
movie
Director
glass
paper
studies
##co
railway
standard
Education
45
represented
Chief
Louis
launched
Star
terms
60
1969
experience
watched
Another
Press
Tom
staff
starting
subject
break
Virginia
nine
eye
##age
evidence
foot
##est
companies
Prince
##V
gun
create
Big
People
guy
Green
simply
numerous
##line
increased
twenty
##ga
##do
1967
award
officer
stone
Before
material
Northern
grew
male
plant
Life
legs
step
Al
unit
35
except
answer
##U
report
response
Edward
commercial
edition
trade
science
##ca
Irish
Law
shown
rate
failed
##ni
remains
changes
mm
limited
larger
Later
cause
waiting
Time
##wood
cost
Bill
manager
activities
likely
allow
operated
retired
##ping
65
directly
Who
associated
effect
hell
Florida
straight
hot
Valley
management
girls
expected
eastern
Mike
chance
cast
centre
chair
hurt
problems
##li
walk
programs
Team
characters
Battle
edge
pay
maybe
corner
majority
medical
Joe
Summer
##io
attempt
Pacific
command
Radio
##by
names
municipality
1964
train
economic
Brown
feature
sex
source
agreed
remember
Three
1966
1965
Pennsylvania
victory
senior
annual
III
Southern
results
Sam
serving
religious
Jones
appears
##der
despite
claimed
Both
musical
matches
fast
security
selected
Young
double
complex
hospital
chief
Times
##ve
Championships
filled
Public
Despite
beautiful
Research
plans
Province
##ally
Wales
##ko
artists
metal
nearby
Spain
##il
32
houses
supported
piece
##no
stared
recording
nature
legal
Russia
##ization
remaining
looks
##sh
bridge
closer
cases
scene
marriage
Little
##é
uses
Earth
specific
Frank
theory
Good
discovered
referred
bass
culture
university
presented
Congress
##go
metres
continue
1960
isn
Awards
meaning
cell
composed
separate
Series
forms
Blue
cross
##tor
increase
test
computer
slightly
Where
Jewish
Town
tree
status
1944
variety
responsible
pretty
initially
##way
realized
pass
provides
Captain
Alexander
recent
score
broke
Scott
drive
financial
showed
Line
stories
ordered
soldiers
genus
operation
gaze
sitting
society
Only
hope
actor
follow
Empire
Yeah
technology
happy
focus
policy
spread
situation
##ford
##ba
Mrs
watch
Can
1963
Commission
touch
earned
troops
Under
1962
individuals
cannot
19th
##lin
mile
expression
exactly
suddenly
weight
dance
stepped
places
appear
difficult
Railway
anti
numbers
kilometres
star
##ier
department
ice
Britain
removed
Once
##lo
Boston
value
##ant
mission
trees
Order
sports
join
serve
Major
poor
Poland
mainly
Theatre
pushed
Station
##it
Lady
federal
silver
##ler
foreign
##ard
Eastern
##den
box
hall
subsequently
lies
acquired
1942
ancient
CD
History
Jean
beyond
##ger
El
##les
growing
championship
native
Parliament
Williams
watching
direct
overall
offer
Also
80
Secretary
spoke
Latin
ability
##ated
safe
presence
##ial
headed
regional
planned
1961
Johnson
throat
consists
##W
extended
Or
bar
walls
Chris
stations
politician
Olympics
influence
share
fighting
speak
hundred
Carolina
die
stars
##tic
color
Chapter
##ish
fear
sleep
goes
Francisco
oil
Bank
sign
physical
##berg
Dutch
seasons
##rd
Games
Governor
sorry
lack
Centre
memory
baby
smaller
charge
Did
multiple
ships
shirt
Assembly
amount
leaves
3rd
Foundation
conditions
1943
Rock
Democratic
Daniel
##at
winner
products
##ina
store
latter
Professor
civil
prior
host
1956
soft
vote
needs
Each
rules
1958
pressure
letter
normal
proposed
levels
records
1959
paid
intended
Victoria
purpose
okay
historical
issued
1980s
broadcast
rule
simple
picked
firm
Sea
1941
Elizabeth
1940
serious
featuring
highly
graduated
mentioned
choice
1948
replied
percent
Scotland
##hi
females
constructed
1957
settled
Steve
recognized
cities
crew
glanced
kiss
competed
flight
knowledge
editor
More
Conference
##H
fifth
elements
##ee
##tes
function
newspaper
recently
Miss
cultural
brown
twice
Office
1939
truth
Creek
1946
households
USA
1950
quality
##tt
border
seconds
destroyed
pre
wait
ahead
build
image
90
cars
##mi
33
promoted
professor
et
bank
medal
text
broken
Middle
revealed
sides
wing
seems
channel
1970s
Ben
loved
effort
officers
Will
##ff
70
Israel
Jim
upper
fully
label
Jr
assistant
powerful
pair
positive
##ary
gives
1955
20th
races
remain
kitchen
primarily
##ti
Sydney
easy
Tour
whispered
buried
300
News
Polish
1952
Duke
Columbia
produce
accepted
00
approach
minor
1947
Special
44
Asian
basis
visit
Fort
Civil
finish
formerly
beside
leaned
##ite
median
rose
coast
effects
supposed
Cross
##hip
Corps
residents
Jackson
##ir
Bob
basketball
36
Asia
seem
Bishop
Book
##ber
ring
##ze
owner
BBC
##ja
transferred
acting
De
appearances
walking
Le
press
grabbed
1954
officially
1953
##pe
risk
taught
review
##X
lay
##well
council
Avenue
seeing
losing
Ohio
Super
province
ones
travel
##sa
projects
equipment
spot
Berlin
administrative
heat
potential
shut
capacity
elections
growth
fought
Republican
mixed
Andrew
teacher
turning
strength
shoulders
beat
wind
1949
Health
follows
camp
suggested
perhaps
Alex
mountain
contact
divided
candidate
fellow
34
Show
necessary
workers
ball
horse
ways
questions
protect
gas
activity
younger
bottom
founder
Scottish
screen
treatment
easily
com
##house
dedicated
Master
warm
Night
Georgia
Long
von
##me
perfect
website
1960s
piano
efforts
##ide
Tony
sort
offers
Development
Simon
executive
##nd
save
Over
Senate
1951
1990s
draw
master
Police
##ius
renamed
boys
initial
prominent
damage
Co
##ov
##za
online
begin
occurred
captured
youth
Top
account
tells
Justice
conducted
forest
##town
bought
teeth
Jersey
##di
purchased
agreement
Michigan
##ure
campus
prison
becomes
product
secret
guess
Route
huge
types
drums
64
split
defeat
estate
housing
##ot
brothers
Coast
declared
happen
titled
therefore
sun
commonly
alongside
Stadium
library
Home
article
steps
telling
slow
assigned
refused
laughed
wants
Nick
wearing
Rome
Open
##ah
Hospital
pointed
Taylor
lifted
escape
participated
##j
drama
parish
Santa
##per
organized
mass
pick
Airport
gets
Library
unable
pull
Live
##ging
surrounding
##ries
focused
Adam
facilities
##ning
##ny
38
##ring
notable
era
connected
gained
operating
laid
Regiment
branch
defined
Christmas
machine
Four
academic
Iran
adopted
concept
Men
compared
search
traffic
Max
Maria
greater
##ding
widely
##burg
serves
1938
37
Go
hotel
shared
typically
scale
1936
leg
suffered
yards
pieces
Ministry
Wilson
episodes
empty
1918
safety
continues
yellow
historic
settlement
400
Come
Corporation
enemy
content
picture
evening
territory
method
trial
solo
driver
Here
##ls
entrance
Prize
spring
whatever
##ent
75
##ji
reading
Arthur
##cy
Our
clothes
Prime
Illinois
Kong
code
##ria
sit
Harry
Federal
chosen
administration
bodies
begins
stomach
Though
seats
Hong
density
Sun
leaders
Field
museum
chart
platform
languages
##ron
birth
holds
Gold
##un
fish
combined
##ps
4th
1937
largely
captain
trust
Game
van
boat
Oxford
basic
beneath
Islands
painting
nice
Toronto
path
males
sources
block
conference
parties
murder
clubs
crowd
calling
About
Business
peace
knows
lake
speaking
stayed
Brazil
allowing
Born
unique
thick
Technology
##que
receive
des
semi
alive
noticed
format
##ped
coffee
digital
##ned
handed
guard
tall
faced
setting
plants
partner
claim
reduced
temple
animals
determined
classes
##out
estimated
##ad
Olympic
providing
Massachusetts
learned
Inc
Philadelphia
Social
carry
42
possibly
hosted
tonight
respectively
Today
shape
Mount
roles
designated
brain
etc
Korea
thoughts
Brian
Highway
doors
background
drew
models
footballer
tone
turns
1935
quiet
tower
wood
bus
write
software
weapons
flat
marked
1920
newly
tight
Eric
finger
Journal
FC
Van
rise
critical
Atlantic
granted
returning
communities
humans
quick
39
48
ranked
sight
pop
Swedish
Stephen
card
analysis
attacked
##wa
Sunday
identified
Jason
champion
situated
1930
expanded
tears
##nce
reaching
Davis
protection
Emperor
positions
nominated
Bridge
tax
dress
allows
avoid
leadership
killing
actress
guest
steel
knowing
electric
cells
disease
grade
unknown
##ium
resulted
Pakistan
confirmed
##ged
tongue
covers
##Y
roof
entirely
applied
votes
drink
interview
exchange
Township
reasons
##ised
page
calls
dog
agent
nose
teaching
##ds
##ists
advanced
wish
Golden
existing
vehicle
del
1919
develop
attacks
pressed
Sports
planning
resulting
facility
Sarah
notes
1933
Class
Historic
winter
##mo
audience
Community
household
Netherlands
creation
##ize
keeping
1914
claims
dry
guys
opposite
##ak
explained
Ontario
secondary
difference
Francis
actions
organizations
yard
animal
Up
Lewis
titles
Several
1934
Ryan
55
Supreme
rolled
1917
distribution
figures
afraid
rural
yourself
##rt
sets
barely
Instead
passing
awards
41
silence
authority
occupied
environment
windows
engineering
surprised
flying
crime
reports
Mountain
powers
driving
succeeded
reviews
1929
Head
missing
Song
Jesus
opportunity
inspired
ends
albums
conversation
impact
injury
surprise
billion
learning
heavily
oldest
union
creating
##ky
festival
literature
letters
sexual
##tte
apartment
Final
comedy
nation
orders
##sen
contemporary
Power
drawn
existence
connection
##ating
Post
Junior
remembered
message
Medal
castle
note
engineer
sounds
Beach
crossed
##dy
ear
scientific
sales
##ai
theme
starts
clearly
##ut
trouble
##gan
bag
##han
BC
sons
1928
silent
versions
daily
Studies
ending
Rose
guns
1932
headquarters
reference
obtained
Squadron
concert
none
du
Among
##don
prevent
Member
answered
staring
Between
##lla
portion
drug
liked
association
performances
Nations
formation
Castle
lose
learn
scoring
relatively
quarter
47
Premier
##ors
Sweden
baseball
attempted
trip
worth
perform
airport
fields
enter
honor
Medical
rear
commander
officials
condition
supply
materials
52
Anna
volume
threw
Persian
43
interested
Gallery
achieved
visited
laws
relief
Area
Matt
singles
Lieutenant
Country
fans
Cambridge
sky
Miller
effective
tradition
Port
##ana
minister
extra
entitled
System
sites
authorities
acres
committee
racing
1931
desk
trains
ass
weren
Family
farm
##ance
industrial
##head
iron
49
abandoned
Out
Holy
chairman
waited
frequently
display
Light
transport
starring
Patrick
Engineering
eat
FM
judge
reaction
centuries
price
##tive
Korean
defense
Get
arrested
1927
send
urban
##ss
pilot
Okay
Media
reality
arts
soul
thirty
##be
catch
generation
##nes
apart
Anne
drop
See
##ving
sixth
trained
Management
magic
cm
height
Fox
Ian
resources
vampire
principal
Was
haven
##au
Walter
Albert
rich
1922
causing
entry
##ell
shortly
46
worry
doctor
composer
rank
Network
bright
showing
regions
1924
wave
carrying
kissed
finding
missed
Earl
lying
target
vehicles
Military
controlled
dinner
##board
briefly
lyrics
motion
duty
strange
attempts
invited
kg
villages
5th
Land
##mer
Christ
prepared
twelve
check
thousand
earth
copies
en
transfer
citizens
Americans
politics
nor
theatre
Project
##bo
clean
rooms
laugh
##ran
application
contained
anyway
containing
Sciences
1925
rare
speech
exist
1950s
falling
passenger
##im
stands
51
##ol
##ow
phase
governor
kids
details
methods
Vice
employed
performing
counter
Jane
heads
Channel
wine
opposition
aged
1912
Every
1926
highway
##ura
1921
aired
978
permanent
Forest
finds
joint
approved
##pur
brief
doubt
acts
brand
wild
closely
Ford
Kevin
chose
shall
port
sweet
fun
asking
Be
##bury
sought
Dave
Mexican
mom
Right
Howard
Moscow
Charlie
Stone
##mann
admitted
##ver
wooden
1923
Officer
relations
Hot
combat
publication
chain
shop
inhabitants
proved
ideas
address
1915
Memorial
explain
increasing
conflict
Anthony
Melbourne
narrow
temperature
slid
1916
worse
selling
documentary
Ali
Ray
opposed
vision
dad
extensive
Infantry
commissioned
Doctor
offices
programming
core
respect
storm
##pa
##ay
##om
promotion
der
struck
anymore
shit
Region
receiving
DVD
alternative
##ue
ride
maximum
1910
##ious
Third
Affairs
cancer
Executive
##op
dream
18th
Due
##ker
##worth
economy
IV
Billboard
identity
subsequent
statement
skills
##back
funding
##ons
Round
Foreign
truck
Please
lights
wondered
##ms
frame
yes
Still
districts
fiction
Colonel
converted
150
grown
accident
critics
fit
Information
architecture
Point
Five
armed
Billy
poet
functions
consisted
suit
Turkish
Band
object
desire
##ities
sounded
flow
Norwegian
articles
Marie
pulling
thin
singing
Hunter
Human
Battalion
Federation
Kim
origin
represent
dangerous
weather
fuel
ex
##sing
Last
bedroom
aid
knees
Alan
angry
assumed
plane
Something
founding
concerned
global
Fire
di
please
Portuguese
touched
Roger
nuclear
Register
Jeff
fixed
royal
lie
finals
NFL
Manchester
towns
handle
shaped
Chairman
Dean
launch
understanding
Children
violence
failure
sector
Brigade
wrapped
fired
sharp
tiny
developing
expansion
Free
institutions
technical
Nothing
otherwise
Main
inch
Saturday
wore
Senior
attached
cheek
representing
Kansas
##chi
##kin
actual
advantage
Dan
Austria
##dale
hoped
multi
squad
Norway
streets
1913
Services
hired
grow
pp
wear
painted
Minnesota
stuff
Building
54
Philippines
1900
##ties
educational
Khan
Magazine
##port
Cape
signal
Gordon
sword
Anderson
cool
engaged
Commander
images
Upon
tied
Security
cup
rail
Vietnam
successfully
##red
Muslim
gain
bringing
Native
hers
occurs
negative
Philip
Kelly
Colorado
category
##lan
600
Have
supporting
wet
56
stairs
Grace
observed
##ung
funds
restaurant
1911
Jews
##ments
##che
Jake
Back
53
asks
journalist
accept
bands
bronze
helping
##ice
decades
mayor
survived
usual
influenced
Douglas
Hey
##izing
surrounded
retirement
Temple
derived
Pope
registered
producing
##ral
structures
Johnny
contributed
finishing
buy
specifically
##king
patients
Jordan
internal
regarding
Samuel
Clark
##q
afternoon
Finally
scenes
notice
refers
quietly
threat
Water
Those
Hamilton
promise
freedom
Turkey
breaking
maintained
device
lap
ultimately
Champion
Tim
Bureau
expressed
investigation
extremely
capable
qualified
recognition
items
##up
Indiana
adult
rain
greatest
architect
Morgan
dressed
equal
Antonio
collected
drove
occur
Grant
graduate
anger
Sri
worried
standards
##ore
injured
somewhere
damn
Singapore
Jimmy
pocket
homes
stock
religion
aware
regarded
Wisconsin
##tra
passes
fresh
##ea
argued
Ltd
EP
Diego
importance
Census
incident
Egypt
Missouri
domestic
leads
ceremony
Early
camera
Father
challenge
Switzerland
lands
familiar
hearing
spend
educated
Tennessee
Thank
##ram
Thus
concern
putting
inches
map
classical
Allen
crazy
valley
Space
softly
##my
pool
worldwide
climate
experienced
neighborhood
scheduled
neither
fleet
1908
Girl
##J
Part
engines
locations
darkness
Revolution
establishment
lawyer
objects
apparently
Queensland
Entertainment
bill
mark
Television
##ong
pale
demand
Hotel
selection
##rn
##ino
Labour
Liberal
burned
Mom
merged
Arizona
request
##lia
##light
hole
employees
##ical
incorporated
95
independence
Walker
covering
joining
##ica
task
papers
backing
sell
biggest
6th
strike
establish
##ō
gently
59
Orchestra
Winter
protein
Juan
locked
dates
Boy
aren
shooting
Luke
solid
charged
Prior
resigned
interior
garden
spoken
improve
wonder
promote
hidden
##med
combination
Hollywood
Swiss
consider
##ks
Lincoln
literary
drawing
Marine
weapon
Victor
Trust
Maryland
properties
##ara
exhibition
understood
hung
Tell
installed
loud
fashion
affected
junior
landing
flowers
##he
Internet
beach
Heart
tries
Mayor
programme
800
wins
noise
##ster
##ory
58
contain
fair
delivered
##ul
wedding
Square
advance
behavior
Program
Oregon
##rk
residence
realize
certainly
hill
Houston
57
indicated
##water
wounded
Village
massive
Moore
thousands
personnel
dating
opera
poetry
##her
causes
feelings
Frederick
applications
push
approached
foundation
pleasure
sale
fly
gotten
northeast
costs
raise
paintings
##ney
views
horses
formal
Arab
hockey
typical
representative
rising
##des
clock
stadium
shifted
Dad
peak
Fame
vice
disappeared
users
Way
Naval
prize
hoping
values
evil
Bell
consisting
##ón
Regional
##ics
improved
circle
carefully
broad
##ini
Fine
maintain
operate
offering
mention
Death
stupid
Through
Princess
attend
interests
ruled
somewhat
wings
roads
grounds
##ual
Greece
Champions
facing
hide
voted
require
Dark
Matthew
credit
sighed
separated
manner
##ile
Boys
1905
committed
impossible
lip
candidates
7th
Bruce
arranged
Islamic
courses
criminal
##ened
smell
##bed
08
consecutive
##ening
proper
purchase
weak
Prix
1906
aside
introduction
Look
##ku
changing
budget
resistance
factory
Forces
agency
##tone
northwest
user
1907
stating
##one
sport
Design
environmental
cards
concluded
Carl
250
accused
##ology
Girls
sick
intelligence
Margaret
responsibility
Guard
##tus
17th
sq
goods
1909
hate
##ek
capture
stores
Gray
comic
Modern
Silver
Andy
electronic
wheel
##ied
Deputy
##bs
Czech
zone
choose
constant
reserve
##lle
Tokyo
spirit
sub
degrees
flew
pattern
compete
Dance
##ik
secretary
Imperial
99
reduce
Hungarian
confused
##rin
Pierre
describes
regularly
Rachel
85
landed
passengers
##ise
##sis
historian
meters
Youth
##ud
participate
##cing
arrival
tired
Mother
##gy
jumped
Kentucky
faces
feed
Israeli
Ocean
##Q
##án
plus
snow
techniques
plate
sections
falls
jazz
##ris
tank
loan
repeated
opinion
##res
unless
rugby
journal
Lawrence
moments
shock
distributed
##ded
adjacent
Argentina
crossing
uncle
##ric
Detroit
communication
mental
tomorrow
session
Emma
Without
##gen
Miami
charges
Administration
hits
coat
protected
Cole
invasion
priest
09
Gary
enjoyed
plot
measure
bound
friendly
throw
musician
##lon
##ins
Age
knife
damaged
birds
driven
lit
ears
breathing
Arabic
Jan
faster
Jonathan
##gate
Independent
starred
Harris
teachers
Alice
sequence
mph
file
translated
decide
determine
Review
documents
sudden
threatened
##ft
bear
distinct
decade
burning
##sky
1930s
replace
begun
extension
##time
1904
equivalent
accompanied
Christopher
Danish
##ye
Besides
##more
persons
fallen
Rural
roughly
saved
willing
ensure
Belgium
05
musicians
##ang
giant
Six
Retrieved
worst
purposes
##bly
mountains
seventh
slipped
brick
07
##py
somehow
Carter
Iraq
cousin
favor
islands
journey
FIFA
contrast
planet
vs
calm
##ings
concrete
branches
gray
profit
Russell
##ae
##ux
##ens
philosophy
businesses
talked
parking
##ming
owners
Place
##tle
agricultural
Kate
06
southeast
draft
Eddie
earliest
forget
Dallas
Commonwealth
edited
66
inner
ed
operates
16th
Harvard
assistance
##si
designs
Take
bathroom
indicate
CEO
Command
Louisiana
1902
Dublin
Books
1901
tropical
1903
##tors
Places
tie
progress
forming
solution
62
letting
##ery
studying
##jo
duties
Baseball
taste
Reserve
##ru
Ann
##gh
visible
##vi
notably
link
NCAA
southwest
Never
storage
mobile
writers
favorite
Pro
pages
truly
count
##tta
string
kid
98
Ross
row
##idae
Kennedy
##tan
Hockey
hip
waist
grandfather
listen
##ho
feels
busy
72
stream
obvious
cycle
shaking
Knight
##ren
Carlos
painter
trail
web
linked
04
Palace
existed
##ira
responded
closing
End
examples
Marshall
weekend
jaw
Denmark
lady
township
medium
chin
Story
option
fifteen
Moon
represents
makeup
investment
jump
childhood
Oklahoma
roll
normally
Ten
Operation
Graham
Seattle
Atlanta
paused
promised
rejected
treated
returns
flag
##ita
Hungary
danger
glad
movements
visual
subjects
credited
soldier
Norman
ill
translation
José
Quebec
medicine
warning
theater
praised
municipal
01
commune
churches
acid
folk
8th
testing
add
survive
Sound
devices
residential
severe
presidential
Mississippi
Austin
Perhaps
Charlotte
hanging
Montreal
grin
##ten
racial
partnership
shoot
shift
##nie
Les
downtown
Brothers
Garden
matters
restored
mirror
forever
winners
rapidly
poverty
##ible
Until
DC
faith
hundreds
Real
Ukraine
Nelson
balance
Adams
contest
relative
ethnic
Edinburgh
composition
##nts
emergency
##van
marine
reputation
Down
pack
12th
Communist
Mountains
pro
stages
measures
##ld
ABC
Li
victims
benefit
Iowa
Broadway
gathered
rating
Defense
classic
##ily
ceiling
##ions
snapped
Everything
constituency
Franklin
Thompson
Stewart
entering
Judge
forth
##sk
wanting
smiling
moves
tunnel
premiered
grass
unusual
Ukrainian
bird
Friday
tail
Portugal
coal
element
Fred
guards
Senator
collaboration
beauty
Wood
chemical
beer
justice
signs
##Z
sees
##zi
Puerto
##zed
96
smooth
Bowl
gift
limit
97
heading
Source
wake
requires
Ed
Constitution
factor
Lane
factors
adding
Note
cleared
pictures
pink
##ola
Kent
Local
Singh
moth
Ty
##ture
courts
Seven
temporary
involving
Vienna
emerged
fishing
agree
defensive
stuck
secure
Tamil
##ick
bottle
03
Player
instruments
Spring
patient
flesh
contributions
cry
Malaysia
120
Global
da
Alabama
Within
##work
debuted
expect
Cleveland
concerns
retained
horror
10th
spending
Peace
Transport
grand
Crown
instance
institution
acted
Hills
mounted
Campbell
shouldn
1898
##ably
chamber
soil
88
Ethan
sand
cheeks
##gi
marry
61
weekly
classification
DNA
Elementary
Roy
definitely
Soon
Rights
gate
suggests
aspects
imagine
golden
beating
Studios
Warren
differences
significantly
glance
occasionally
##od
clothing
Assistant
depth
sending
possibility
mode
prisoners
requirements
daughters
dated
Representatives
prove
guilty
interesting
smoke
cricket
93
##ates
rescue
Connecticut
underground
Opera
13th
reign
##ski
thanks
leather
equipped
routes
fan
##ans
script
Wright
bishop
Welsh
jobs
faculty
eleven
Railroad
appearing
anniversary
Upper
##down
anywhere
Rugby
Metropolitan
Meanwhile
Nicholas
champions
forehead
mining
drinking
76
Jerry
membership
Brazilian
Wild
Rio
scheme
Unlike
strongly
##bility
fill
##rian
easier
MP
Hell
##sha
Stanley
banks
Baron
##ique
Robinson
67
Gabriel
Austrian
Wayne
exposed
##wan
Alfred
1899
manage
mix
visitors
eating
##rate
Sean
commission
Cemetery
policies
Camp
parallel
traveled
guitarist
02
supplies
couples
poem
blocks
Rick
Training
Energy
achieve
appointment
Wing
Jamie
63
novels
##em
1890
songwriter
Base
Jay
##gar
naval
scared
miss
labor
technique
crisis
Additionally
backed
destroy
seriously
tools
tennis
91
god
##ington
continuing
steam
obviously
Bobby
adapted
fifty
enjoy
Jacob
publishing
column
##ular
Baltimore
Donald
Liverpool
92
drugs
movies
##ock
Heritage
##je
##istic
vocal
strategy
gene
advice
##bi
Ottoman
riding
##side
Agency
Indonesia
11th
laughing
sleeping
und
muttered
listening
deck
tip
77
ownership
grey
Claire
deeply
provincial
popularity
Cooper
##á
Emily
##sed
designer
Murray
describe
Danny
Around
Parker
##dae
68
rates
suffering
considerable
78
nervous
powered
tons
circumstances
wished
belonged
Pittsburgh
flows
9th
##use
belt
81
useful
15th
context
List
Dead
Iron
seek
Season
worn
frequency
legislation
replacement
memories
Tournament
Again
Barry
organisation
copy
Gulf
waters
meets
struggle
Oliver
1895
Susan
protest
kick
Alliance
components
1896
Tower
Windows
demanded
regiment
sentence
Woman
Logan
Referee
hosts
debate
knee
Blood
##oo
universities
practices
Ward
ranking
correct
happening
Vincent
attracted
classified
##stic
processes
immediate
waste
increasingly
Helen
##po
Lucas
Phil
organ
1897
tea
suicide
actors
lb
crash
approval
waves
##ered
hated
grip
700
amongst
69
74
hunting
dying
lasted
illegal
##rum
stare
defeating
##gs
shrugged
°C
Jon
Count
Orleans
94
affairs
formally
##and
##ves
criticized
Disney
Vol
successor
tests
scholars
palace
Would
celebrated
rounds
grant
Schools
Such
commanded
demon
Romania
##all
Karl
71
##yn
84
Daily
totally
Medicine
fruit
Die
upset
Lower
Conservative
14th
Mitchell
escaped
shoes
Morris
##tz
queen
harder
prime
Thanks
indeed
Sky
authors
rocks
definition
Nazi
accounts
printed
experiences
##ters
divisions
Cathedral
denied
depending
Express
##let
73
appeal
loose
colors
filed
##isation
gender
##ew
throne
forests
Finland
domain
boats
Baker
squadron
shore
remove
##ification
careful
wound
railroad
82
seeking
agents
##ved
Blues
##off
customers
ignored
net
##ction
hiding
Originally
declined
##ess
franchise
eliminated
NBA
merely
pure
appropriate
visiting
forty
markets
offensive
coverage
cave
##nia
spell
##lar
Benjamin
##ire
Convention
filmed
Trade
##sy
##ct
Having
palm
1889
Evans
intense
plastic
Julia
document
jeans
vessel
SR
##fully
proposal
Birmingham
le
##ative
assembly
89
fund
lock
1893
AD
meetings
occupation
modified
Years
odd
aimed
reform
Mission
Works
shake
cat
exception
convinced
executed
pushing
dollars
replacing
soccer
manufacturing
##ros
expensive
kicked
minimum
Josh
coastal
Chase
ha
Thailand
publications
deputy
Sometimes
Angel
effectively
##illa
criticism
conduct
Serbian
landscape
NY
absence
passage
##ula
Blake
Indians
1892
admit
Trophy
##ball
Next
##rated
##ians
charts
kW
orchestra
79
heritage
1894
rough
exists
boundary
Bible
Legislative
moon
medieval
##over
cutting
print
##ett
birthday
##hood
destruction
Julian
injuries
influential
sisters
raising
statue
colour
dancing
characteristics
orange
##ok
##aries
Ken
colonial
twin
Larry
surviving
##shi
Barbara
personality
entertainment
assault
##ering
talent
happens
license
86
couch
Century
soundtrack
shower
swimming
cash
Staff
bent
1885
bay
lunch
##lus
dozen
vessels
CBS
greatly
critic
Test
symbol
panel
shell
output
reaches
87
Front
motor
ocean
##era
##ala
maintenance
violent
scent
Limited
Las
Hope
Theater
Which
survey
Robin
recordings
compilation
##ward
bomb
insurance
Authority
sponsored
satellite
Jazz
refer
stronger
blow
whilst
Wrestling
suggest
##rie
climbed
##els
voices
shopping
1891
Neil
discovery
##vo
##ations
burst
Baby
peaked
Brooklyn
knocked
lift
##try
false
nations
Hugh
Catherine
preserved
distinguished
terminal
resolution
ratio
pants
cited
competitions
completion
DJ
bone
uniform
schedule
shouted
83
1920s
rarely
Basketball
Taiwan
artistic
bare
vampires
arrest
Utah
Marcus
assist
gradually
qualifying
Victorian
vast
rival
Warner
Terry
Economic
##cia
losses
boss
versus
audio
runner
apply
surgery
Play
twisted
comfortable
##cs
Everyone
guests
##lt
Harrison
UEFA
lowered
occasions
##lly
##cher
chapter
youngest
eighth
Culture
##room
##stone
1888
Songs
Seth
Digital
involvement
expedition
relationships
signing
1000
fault
annually
circuit
afterwards
meat
creature
##ou
cable
Bush
##net
Hispanic
rapid
gonna
figured
extent
considering
cried
##tin
sigh
dynasty
##ration
cabinet
Richmond
stable
##zo
1864
Admiral
Unit
occasion
shares
badly
longest
##ify
Connor
extreme
wondering
girlfriend
Studio
##tions
1865
tribe
exact
muscles
hat
Luis
Orthodox
decisions
amateur
description
##lis
hips
kingdom
##ute
Portland
whereas
Bachelor
outer
discussion
partly
Arkansas
1880
dreams
perfectly
Lloyd
##bridge
asleep
##tti
Greg
permission
trading
pitch
mill
Stage
liquid
Keith
##tal
wolf
processing
stick
Jerusalem
profile
rushed
spiritual
argument
Ice
Guy
till
Delhi
roots
Section
missions
Glasgow
penalty
NBC
encouraged
identify
keyboards
##zing
##ston
disc
plain
informed
Bernard
thinks
fled
Justin
##day
newspapers
##wick
Ralph
##zer
unlike
Stars
artillery
##ified
recovered
arrangement
searching
##pers
##tory
##rus
deaths
Egyptian
diameter
##í
marketing
corporate
teach
marks
Turner
staying
hallway
Sebastian
chapel
naked
mistake
possession
1887
dominated
jacket
creative
Fellow
Falls
Defence
suspended
employment
##rry
Hebrew
Hudson
Week
Wars
recognize
Natural
controversial
Tommy
thank
Athletic
benefits
decline
intention
##ets
Lost
Wall
participation
elevation
supports
parliament
1861
concentration
Movement
##IS
competing
stops
behalf
##mm
limits
funded
discuss
Collins
departure
obtain
woods
latest
universe
alcohol
Laura
rush
blade
funny
Dennis
forgotten
Amy
Symphony
apparent
graduating
1862
Rob
Grey
collections
Mason
emotions
##ugh
literally
Any
counties
1863
nomination
fighter
habitat
respond
external
Capital
exit
Video
carbon
sharing
Bad
opportunities
Perry
photo
##mus
Orange
posted
remainder
transportation
portrayed
Labor
recommended
percussion
rated
Grade
rivers
partially
suspected
strip
adults
button
struggled
intersection
Canal
##ability
poems
claiming
Madrid
1886
Together
##our
Much
Vancouver
instrument
instrumental
1870
mad
angle
Control
Phoenix
Leo
Communications
mail
##ette
##ev
preferred
adaptation
alleged
discussed
deeper
##ane
Yet
Monday
volumes
thrown
Zane
##logy
displayed
rolling
dogs
Along
Todd
##ivity
withdrew
representation
belief
##sia
crown
Late
Short
hardly
grinned
romantic
Pete
##ken
networks
enemies
Colin
Eventually
Side
donated
##su
steady
grab
guide
Finnish
Milan
pregnant
controversy
reminded
1884
Stuart
##bach
##ade
Race
Belgian
LP
Production
Zone
lieutenant
infantry
Child
confusion
sang
resident
##ez
victim
1881
channels
Ron
businessman
##gle
Dick
colony
pace
producers
##ese
agencies
Craig
Lucy
Very
centers
Yorkshire
photography
##ched
Album
championships
Metro
substantial
Standard
terrible
directors
contribution
advertising
emotional
##its
layer
segment
sir
folded
Roberts
ceased
Hampshire
##ray
detailed
partners
m²
##pt
Beth
genre
commented
generated
remote
aim
Hans
credits
concerts
periods
breakfast
gay
shadow
defence
Too
Had
transition
Afghanistan
##book
eggs
defend
##lli
writes
Systems
bones
mess
seed
scientists
Shortly
Romanian
##zy
Freedom
muscle
hero
parent
agriculture
checked
Islam
Bristol
Freyja
Arena
cabin
Germans
electricity
ranks
viewed
medals
Wolf
associate
Madison
Sorry
fort
Chile
detail
widespread
attorney
boyfriend
##nan
Students
Spencer
##ig
bite
Maine
demolished
Lisa
erected
Someone
operational
Commissioner
NHL
Coach
Bar
forcing
Dream
Rico
cargo
Murphy
##fish
##ase
distant
##master
##ora
Organization
doorway
Steven
traded
electrical
frequent
##wn
Branch
Sure
1882
placing
Manhattan
attending
attributed
excellent
pounds
ruling
principles
component
Mediterranean
Vegas
machines
percentage
infrastructure
throwing
affiliated
Kings
secured
Caribbean
Track
Ted
honour
opponent
Virgin
Construction
grave
produces
Challenge
stretched
paying
murmured
##ata
integrated
waved
Nathan
##ator
transmission
videos
##yan
##hu
Nova
descent
AM
Harold
conservative
Therefore
venue
competitive
##ui
conclusion
funeral
confidence
releases
scholar
##sson
Treaty
stress
mood
##sm
Mac
residing
Action
Fund
##ship
animated
fitted
##kar
defending
voting
tend
##berry
answers
believes
##ci
helps
Aaron
##tis
themes
##lay
populations
Players
stroke
Trinity
electoral
paint
abroad
charity
keys
Fair
##pes
interrupted
participants
murdered
Days
supporters
##ab
expert
borders
mate
##llo
solar
architectural
tension
##bling
Parish
tape
operator
Cultural
Clinton
indicates
publisher
ordinary
sugar
arrive
rifle
acoustic
##uring
assets
##shire
SS
sufficient
options
HMS
Classic
bars
rebuilt
governments
Beijing
reporter
screamed
Abbey
crying
mechanical
instantly
communications
Political
cemetery
Cameron
Stop
representatives
USS
texts
mathematics
innings
civilian
Serbia
##hill
practical
patterns
dust
Faculty
debt
##end
##cus
junction
suppose
experimental
Computer
Food
wrist
abuse
dealing
bigger
cap
principle
##pin
Muhammad
Fleet
Collection
attempting
dismissed
##burn
regime
Herbert
##ua
shadows
1883
Eve
Lanka
1878
Performance
fictional
##lock
Noah
Run
Voivodeship
exercise
broadcasting
##fer
RAF
Magic
Bangladesh
suitable
##low
##del
styles
toured
Code
identical
links
insisted
110
flash
Model
slave
Derek
Rev
fairly
Greater
sole
##lands
connecting
zero
bench
##ome
switched
Fall
Owen
yours
Electric
shocked
convention
##bra
climb
memorial
swept
Racing
decides
belong
##nk
parliamentary
##und
ages
proof
##dan
delivery
1860
##ów
sad
publicly
leaning
Archbishop
dirt
##ose
categories
1876
burn
##bing
requested
Guinea
Historical
rhythm
relation
##heim
ye
pursue
merchant
##mes
lists
continuous
frowned
colored
tool
gods
involves
Duncan
photographs
Cricket
slight
Gregory
atmosphere
wider
Cook
##tar
essential
Being
FA
emperor
wealthy
nights
##bar
licensed
Hawaii
viewers
Language
load
nearest
milk
kilometers
platforms
##ys
territories
Rogers
sheet
Rangers
contested
##lation
isolated
assisted
swallowed
Small
Contemporary
Technical
Edwards
express
Volume
endemic
##ei
tightly
Whatever
indigenous
Colombia
##ulation
hp
characterized
##ida
Nigeria
Professional
duo
Soccer
slaves
Farm
smart
Attorney
Attendance
Common
salt
##vin
tribes
nod
sentenced
bid
sample
Drive
switch
instant
21st
Cuba
drunk
Alaska
proud
awareness
hitting
sessions
Thai
locally
elsewhere
Dragon
gentle
touching
##lee
Springs
Universal
Latino
spin
1871
Chart
recalled
Type
pointing
##ii
lowest
##ser
grandmother
Adelaide
Jacques
spotted
Buffalo
restoration
Son
Joan
farmers
Lily
1879
lucky
##dal
luck
eldest
##rant
Market
drummer
deployed
warned
prince
sing
amazing
sailed
##oon
1875
Primary
traveling
Masters
Sara
cattle
Trail
gang
Further
desert
relocated
##tch
##ord
Flight
illness
Munich
ninth
repair
Singles
##lated
Tyler
tossed
boots
Work
sized
earning
shoved
magazines
housed
dam
researchers
Former
spun
premiere
spaces
organised
wealth
crimes
devoted
stones
Urban
automatic
hop
affect
outstanding
tanks
mechanism
Muslims
Ms
shots
argue
Jeremy
connections
Armenian
increases
rubbed
1867
retail
gear
Pan
bonus
jurisdiction
weird
concerning
whisper
##gal
Microsoft
tenure
hills
www
Gmina
porch
files
reportedly
venture
Storm
##ence
Nature
killer
panic
fate
Secret
Wang
scream
drivers
belongs
Chamber
clan
monument
mixing
Peru
bet
Riley
Friends
Isaac
submarine
1877
130
judges
harm
ranging
affair
prepare
pupils
householder
Policy
decorated
Nation
slammed
activist
implemented
Room
qualify
Publishing
establishing
Baptist
touring
subsidiary
##nal
legend
1872
laughter
PC
Athens
settlers
ties
dual
dear
Draft
strategic
Ivan
reveal
closest
dominant
Ah
##ult
Denver
bond
boundaries
drafted
tables
##TV
eyed
Edition
##ena
1868
belonging
1874
Industrial
cream
Ridge
Hindu
scholarship
Ma
opens
initiated
##ith
yelled
compound
random
Throughout
grades
physics
sank
grows
exclusively
settle
Saints
brings
Amsterdam
Make
Hart
walks
battery
violin
##born
explanation
##ware
1873
##har
provinces
thrust
exclusive
sculpture
shops
##fire
VI
constitution
Barcelona
monster
Devon
Jefferson
Sullivan
bow
##din
desperate
##ć
Julie
##mon
##ising
terminus
Jesse
abilities
golf
##ple
##via
##away
Raymond
measured
jury
firing
revenue
suburb
Bulgarian
1866
##cha
timber
Things
##weight
Morning
spots
Alberta
Data
explains
Kyle
friendship
raw
tube
demonstrated
aboard
immigrants
reply
breathe
Manager
ease
##ban
##dia
Diocese
##vy
##ía
pit
ongoing
##lie
Gilbert
Costa
1940s
Report
voters
cloud
traditions
##MS
gallery
Jennifer
swung
Broadcasting
Does
diverse
reveals
arriving
initiative
##ani
Give
Allied
Pat
Outstanding
monastery
blind
Currently
##war
bloody
stopping
focuses
managing
Florence
Harvey
creatures
900
breast
internet
Artillery
purple
##mate
alliance
excited
fee
Brisbane
lifetime
Private
##aw
##nis
##gue
##ika
phrase
regulations
reflected
manufactured
conventional
pleased
client
##ix
##ncy
Pedro
reduction
##con
welcome
jail
comfort
Iranian
Norfolk
Dakota
##tein
evolution
everywhere
Initially
sensitive
Olivia
Oscar
implementation
sits
stolen
demands
slide
grandson
##ich
merger
##mic
Spirit
##°
ticket
root
difficulty
Nevada
##als
lined
Dylan
Original
Call
biological
EU
dramatic
##hn
Operations
treaty
gap
##list
Am
Romanized
moral
Butler
perspective
Furthermore
Manuel
absolutely
unsuccessful
disaster
dispute
preparation
tested
discover
##ach
shield
squeezed
brushed
battalion
Arnold
##ras
superior
treat
clinical
##so
Apple
Syria
Cincinnati
package
flights
editions
Leader
minority
wonderful
hang
Pop
Philippine
telephone
bell
honorary
##mar
balls
Democrat
dirty
thereafter
collapsed
Inside
slip
wrestling
##ín
listened
regard
bowl
None
Sport
completing
trapped
##view
copper
Wallace
Honor
blame
Peninsula
##ert
##oy
Anglo
bearing
simultaneously
honest
##ias
Mix
Got
speaker
voiced
impressed
prices
error
1869
##feld
trials
Nine
Industry
substitute
Municipal
departed
slept
##ama
Junction
Socialist
flower
dropping
comment
fantasy
##ress
arrangements
travelled
furniture
fist
relieved
##tics
Leonard
linear
earn
expand
Soul
Plan
Leeds
Sierra
accessible
innocent
Winner
Fighter
Range
winds
vertical
Pictures
101
charter
cooperation
prisoner
interviews
recognised
sung
manufacturer
exposure
submitted
Mars
leaf
gauge
screaming
likes
eligible
##ac
gathering
columns
##dra
belly
UN
maps
messages
speakers
##ants
garage
unincorporated
Number
Watson
sixteen
lots
beaten
Could
Municipality
##ano
Horse
talks
Drake
scores
Venice
genetic
##mal
##ère
Cold
Jose
nurse
traditionally
##bus
Territory
Key
Nancy
##win
thumb
São
index
dependent
carries
controls
Comics
coalition
physician
referring
Ruth
Based
restricted
inherited
internationally
stretch
THE
plates
margin
Holland
knock
significance
valuable
Kenya
carved
emotion
conservation
municipalities
overseas
resumed
Finance
graduation
blinked
temperatures
constantly
productions
scientist
ghost
cuts
permitted
##ches
firmly
##bert
patrol
##yo
Croatian
attacking
1850
portrait
promoting
sink
conversion
##kov
locomotives
Guide
##val
nephew
relevant
Marc
drum
originated
Chair
visits
dragged
Price
favour
corridor
properly
respective
Caroline
reporting
inaugural
1848
industries
##ching
edges
Christianity
Maurice
Trent
Economics
carrier
Reed
##gon
tribute
Pradesh
##ale
extend
attitude
Yale
##lu
settlements
glasses
taxes
targets
##ids
quarters
##ological
connect
hence
metre
collapse
underneath
banned
Future
clients
alternate
explosion
kinds
Commons
hungry
dragon
Chapel
Buddhist
lover
depression
pulls
##ges
##uk
origins
computers
crosses
kissing
assume
emphasis
lighting
##ites
personally
crashed
beam
touchdown
lane
comparison
##mont
Hitler
##las
execution
##ene
acre
sum
Pearl
ray
##point
essentially
worker
convicted
tear
Clay
recovery
Literature
Unfortunately
##row
partial
Petersburg
Bulgaria
coaching
evolved
reception
enters
narrowed
elevator
therapy
defended
pairs
##lam
breaks
Bennett
Uncle
cylinder
##ison
passion
bases
Actor
cancelled
battles
extensively
oxygen
Ancient
specialized
negotiations
##rat
acquisition
convince
interpretation
##00
photos
aspect
colleges
Artist
keeps
##wing
Croatia
##ona
Hughes
Otto
comments
##du
Ph
Sweet
adventure
describing
Student
Shakespeare
scattered
objective
Aviation
Phillips
Fourth
athletes
##hal
##tered
Guitar
intensity
née
dining
curve
Obama
topics
legislative
Mill
Cruz
##ars
Members
recipient
Derby
inspiration
corresponding
fed
YouTube
coins
pressing
intent
Karen
cinema
Delta
destination
shorter
Christians
imagined
canal
Newcastle
Shah
Adrian
super
Males
160
liberal
lord
bat
supplied
Claude
meal
worship
##atic
Han
wire
°F
##tha
punishment
thirteen
fighters
##ibility
1859
Ball
gardens
##ari
Ottawa
pole
indicating
Twenty
Higher
Bass
Ivy
farming
##urs
certified
Saudi
plenty
##ces
restaurants
Representative
Miles
payment
##inger
##rit
Confederate
festivals
references
##ić
Mario
PhD
playoffs
witness
rice
mask
saving
opponents
enforcement
automatically
relegated
##oe
radar
whenever
Financial
imperial
uncredited
influences
Abraham
skull
Guardian
Haven
Bengal
impressive
input
mixture
Warsaw
altitude
distinction
1857
collective
Annie
##ean
##bal
directions
Flying
##nic
faded
##ella
contributing
##ó
employee
##lum
##yl
ruler
oriented
conductor
focusing
##die
Giants
Mills
mines
Deep
curled
Jessica
guitars
Louise
procedure
Machine
failing
attendance
Nepal
Brad
Liam
tourist
exhibited
Sophie
depicted
Shaw
Chuck
##can
expecting
challenges
##nda
equally
resignation
##logical
Tigers
loop
pitched
outdoor
reviewed
hopes
True
temporarily
Borough
torn
jerked
collect
Berkeley
Independence
cotton
retreat
campaigns
participating
Intelligence
Heaven
##ked
situations
borough
Democrats
Harbor
##len
Liga
serial
circles
fourteen
##lot
seized
filling
departments
finance
absolute
Roland
Nate
floors
raced
struggling
deliver
protests
##tel
Exchange
efficient
experiments
##dar
faint
3D
binding
Lions
lightly
skill
proteins
difficulties
##cal
monthly
camps
flood
loves
Amanda
Commerce
##oid
##lies
elementary
##tre
organic
##stein
##ph
receives
Tech
enormous
distinctive
Joint
experiment
Circuit
citizen
##hy
shelter
ideal
practically
formula
addressed
Foster
Productions
##ax
variable
punk
Voice
fastest
concentrated
##oma
##yer
stored
surrender
vary
Sergeant
Wells
ward
Wait
##ven
playoff
reducing
cavalry
##dle
Venezuela
tissue
amounts
sweat
##we
Non
##nik
beetle
##bu
##tu
Jared
Hunt
##₂
fat
Sultan
Living
Circle
Secondary
Suddenly
reverse
##min
Travel
##bin
Lebanon
##mas
virus
Wind
dissolved
enrolled
holiday
Keep
helicopter
Clarke
constitutional
technologies
doubles
instructions
##ace
Azerbaijan
##ill
occasional
frozen
trick
wiped
writings
Shanghai
preparing
challenged
mainstream
summit
180
##arian
##rating
designation
##ada
revenge
filming
tightened
Miguel
Montana
reflect
celebration
bitch
flashed
signals
rounded
peoples
##tation
renowned
Google
characteristic
Campaign
sliding
##rman
usage
Record
Using
woke
solutions
holes
theories
logo
Protestant
relaxed
brow
nickname
Reading
marble
##tro
symptoms
Overall
capita
##ila
outbreak
revolution
deemed
Principal
Hannah
approaches
inducted
Wellington
vulnerable
Environmental
Drama
incumbent
Dame
1854
travels
samples
accurate
physically
Sony
Nashville
##sville
##lic
##og
Producer
Lucky
tough
Stanford
resort
repeatedly
eyebrows
Far
choir
commenced
##ep
##ridge
rage
swing
sequel
heir
buses
ad
Grove
##late
##rick
updated
##SA
Delaware
##fa
Athletics
warmth
Off
excitement
verse
Protection
Villa
corruption
intellectual
Jenny
##lyn
mystery
prayer
healthy
##ologist
Bear
lab
Ernest
Remix
register
basement
Montgomery
consistent
tier
1855
Preston
Brooks
##maker
vocalist
laboratory
delayed
wheels
rope
bachelor
pitcher
Block
Nevertheless
suspect
efficiency
Nebraska
siege
FBI
planted
##AC
Newton
breeding
##ain
eighteen
Argentine
encounter
servant
1858
elder
Shadow
Episode
fabric
doctors
survival
removal
chemistry
volunteers
Kane
variant
arrives
Eagle
Left
##fe
Jo
divorce
##ret
yesterday
Bryan
handling
diseases
customer
Sheriff
Tiger
Harper
##oi
resting
Linda
Sheffield
gasped
sexy
economics
alien
tale
footage
Liberty
yeah
fundamental
Ground
flames
Actress
photographer
Maggie
Additional
joke
custom
Survey
Abu
silk
consumption
Ellis
bread
##uous
engagement
puts
Dog
##hr
poured
guilt
CDP
boxes
hardware
clenched
##cio
stem
arena
extending
##com
examination
Steel
encountered
revised
140
picking
Car
hasn
Minor
pride
Roosevelt
boards
##mia
blocked
curious
drag
narrative
brigade
Prefecture
mysterious
namely
connects
Devil
historians
CHAPTER
quit
installation
Golf
empire
elevated
##eo
releasing
Bond
##uri
harsh
ban
##BA
contracts
cloth
presents
stake
chorus
##eau
swear
##mp
allies
generations
Motor
meter
pen
warrior
veteran
##EC
comprehensive
missile
interaction
instruction
Renaissance
rested
Dale
fix
fluid
les
investigate
loaded
widow
exhibit
artificial
select
rushing
tasks
signature
nowhere
Engineer
feared
Prague
bother
extinct
gates
Bird
climbing
heels
striking
artwork
hunt
awake
##hin
Formula
thereby
commitment
imprisoned
Beyond
##MA
transformed
Agriculture
Low
Movie
radical
complicated
Yellow
Auckland
mansion
tenth
Trevor
predecessor
##eer
disbanded
sucked
circular
witch
gaining
lean
Behind
illustrated
rang
celebrate
bike
consist
framework
##cent
Shane
owns
350
comprises
collaborated
colleagues
##cast
engage
fewer
##ave
1856
observation
diplomatic
legislature
improvements
Interstate
craft
MTV
martial
administered
jet
approaching
permanently
attraction
manuscript
numbered
Happy
Andrea
shallow
Gothic
Anti
##bad
improvement
trace
preserve
regardless
rode
dies
achievement
maintaining
Hamburg
spine
##air
flowing
encourage
widened
posts
##bound
125
Southeast
Santiago
##bles
impression
receiver
Single
closure
##unt
communist
honors
Northwest
105
##ulated
cared
un
hug
magnetic
seeds
topic
perceived
prey
prevented
Marvel
Eight
Michel
Transportation
rings
Gate
##gne
Byzantine
accommodate
floating
##dor
equation
ministry
##ito
##gled
Rules
earthquake
revealing
Brother
Celtic
blew
chairs
Panama
Leon
attractive
descendants
Care
Ambassador
tours
breathed
threatening
##cho
smiles
Lt
Beginning
##iness
fake
assists
fame
strings
Mobile
Liu
parks
http
1852
brush
Aunt
bullet
consciousness
##sta
##ther
consequences
gather
dug
1851
bridges
Doug
##sion
Artists
ignore
Carol
brilliant
radiation
temples
basin
clouds
##cted
Stevens
spite
soap
consumer
Damn
Snow
recruited
##craft
Advanced
tournaments
Quinn
undergraduate
questioned
Palmer
Annual
Others
feeding
Spider
printing
##orn
cameras
functional
Chester
readers
Alpha
universal
Faith
Brandon
François
authored
Ring
el
aims
athletic
possessed
Vermont
programmes
##uck
bore
Fisher
statements
shed
saxophone
neighboring
pronounced
barrel
bags
##dge
organisations
pilots
casualties
Kenneth
##brook
silently
Malcolm
span
Essex
anchor
##hl
virtual
lessons
Henri
Trump
Page
pile
locomotive
wounds
uncomfortable
sustained
Diana
Eagles
##pi
2000s
documented
##bel
Cassie
delay
kisses
##ines
variation
##ag
growled
##mark
##ways
Leslie
studios
Friedrich
aunt
actively
armor
eaten
historically
Better
purse
honey
ratings
##ée
naturally
1840
peer
Kenny
Cardinal
database
Looking
runners
handsome
Double
PA
##boat
##sted
protecting
##jan
Diamond
concepts
interface
##aki
Watch
Article
Columbus
dialogue
pause
##rio
extends
blanket
pulse
1853
affiliate
ladies
Ronald
counted
kills
demons
##zation
Airlines
Marco
Cat
companion
mere
Yugoslavia
Forum
Allan
pioneer
Competition
Methodist
patent
nobody
Stockholm
##ien
regulation
##ois
accomplished
##itive
washed
sake
Vladimir
crops
prestigious
humor
Sally
labour
tributary
trap
altered
examined
Mumbai
bombing
Ash
noble
suspension
ruins
##bank
spare
displays
guided
dimensional
Iraqi
##hon
sciences
Franz
relating
fence
followers
Palestine
invented
proceeded
Batman
Bradley
##yard
##ova
crystal
Kerala
##ima
shipping
handled
Want
abolished
Drew
##tter
Powell
Half
##table
##cker
exhibitions
Were
assignment
assured
##rine
Indonesian
Grammy
acknowledged
Kylie
coaches
structural
clearing
stationed
Say
Total
Rail
besides
glow
threats
afford
Tree
Musical
##pp
elite
centered
explore
Engineers
Stakes
Hello
tourism
severely
assessment
##tly
crack
politicians
##rrow
sheets
volunteer
##borough
##hold
announcement
recover
contribute
lungs
##ille
mainland
presentation
Johann
Writing
1849
##bird
Study
Boulevard
coached
fail
airline
Congo
Plus
Syrian
introduce
ridge
Casey
manages
##fi
searched
Support
succession
progressive
coup
cultures
##lessly
sensation
Cork
Elena
Sofia
Philosophy
mini
trunk
academy
Mass
Liz
practiced
Reid
##ule
satisfied
experts
Wilhelm
Woods
invitation
Angels
calendar
joy
Sr
Dam
packed
##uan
bastard
Workers
broadcasts
logic
cooking
backward
##ack
Chen
creates
enzyme
##xi
Davies
aviation
VII
Conservation
fucking
Knights
##kan
requiring
hectares
wars
ate
##box
Mind
desired
oak
absorbed
Really
Vietnamese
Paulo
athlete
##car
##eth
Talk
Wu
##cks
survivors
Yang
Joel
Almost
Holmes
Armed
Joshua
priests
discontinued
##sey
blond
Rolling
suggesting
CA
clay
exterior
Scientific
##sive
Giovanni
Hi
farther
contents
Winners
animation
neutral
mall
Notes
layers
professionals
Armstrong
Against
Piano
involve
monitor
angel
parked
bears
seated
feat
beliefs
##kers
Version
suffer
##ceae
guidance
##eur
honored
raid
alarm
Glen
Ellen
Jamaica
trio
enabled
##ils
procedures
##hus
moderate
upstairs
##ses
torture
Georgian
rebellion
Fernando
Nice
##are
Aires
Campus
beast
##hing
1847
##FA
Isle
##logist
Princeton
cathedral
Oakland
Solomon
##tto
Milwaukee
upcoming
midfielder
Neither
sacred
Eyes
appreciate
Brunswick
secrets
Rice
Somerset
Chancellor
Curtis
##gel
Rich
separation
grid
##los
##bon
urge
##ees
##ree
freight
towers
psychology
requirement
dollar
##fall
##sman
exile
tomb
Salt
Stefan
Buenos
Revival
Porter
tender
diesel
chocolate
Eugene
Legion
Laboratory
sheep
arched
hospitals
orbit
Full
##hall
drinks
ripped
##RS
tense
Hank
leagues
##nberg
PlayStation
fool
Punjab
relatives
Comedy
sur
1846
Tonight
Sox
##if
Rabbi
org
speaks
institute
defender
painful
wishes
Weekly
literacy
portions
snake
item
deals
##tum
autumn
sharply
reforms
thighs
prototype
##ition
argues
disorder
Physics
terror
provisions
refugees
predominantly
independently
march
##graphy
Arabia
Andrews
Bus
Money
drops
##zar
pistol
matrix
revolutionary
##ust
Starting
##ptic
Oak
Monica
##ides
servants
##hed
archaeological
divorced
rocket
enjoying
fires
##nel
assembled
qualification
retiring
##fied
Distinguished
handful
infection
Durham
##itz
fortune
renewed
Chelsea
##sley
curved
gesture
retain
exhausted
##ifying
Perth
jumping
Palestinian
Simpson
colonies
steal
##chy
corners
Finn
arguing
Martha
##var
Betty
emerging
Heights
Hindi
Man